#ifndef POSTURA_MODEL_H
#define POSTURA_MODEL_H

const unsigned int postura_model_len = 3880;
alignas(8) const unsigned char postura_model[] = {
  0x1c, 0x00, 0x00, 0x00, 0x54, 0x46, 0x4c, 0x33, 0x14, 0x00, 0x20, 0x00,
  0x1c, 0x00, 0x18, 0x00, 0x14, 0x00, 0x10, 0x00, 0x0c, 0x00, 0x00, 0x00,
  0x08, 0x00, 0x04, 0x00, 0x14, 0x00, 0x00, 0x00, 0x1c, 0x00, 0x00, 0x00,
  0x8c, 0x00, 0x00, 0x00, 0xe4, 0x00, 0x00, 0x00, 0x10, 0x09, 0x00, 0x00,
  0x20, 0x09, 0x00, 0x00, 0xc4, 0x0e, 0x00, 0x00, 0x03, 0x00, 0x00, 0x00,
  0x01, 0x00, 0x00, 0x00, 0x04, 0x00, 0x00, 0x00, 0xa2, 0xf6, 0xff, 0xff,
  0x0c, 0x00, 0x00, 0x00, 0x1c, 0x00, 0x00, 0x00, 0x3c, 0x00, 0x00, 0x00,
  0x0f, 0x00, 0x00, 0x00, 0x73, 0x65, 0x72, 0x76, 0x69, 0x6e, 0x67, 0x5f,
  0x64, 0x65, 0x66, 0x61, 0x75, 0x6c, 0x74, 0x00, 0x01, 0x00, 0x00, 0x00,
  0x04, 0x00, 0x00, 0x00, 0x90, 0xff, 0xff, 0xff, 0x0a, 0x00, 0x00, 0x00,
  0x04, 0x00, 0x00, 0x00, 0x08, 0x00, 0x00, 0x00, 0x6f, 0x75, 0x74, 0x70,
  0x75, 0x74, 0x5f, 0x30, 0x00, 0x00, 0x00, 0x00, 0x01, 0x00, 0x00, 0x00,
  0x04, 0x00, 0x00, 0x00, 0xb2, 0xf7, 0xff, 0xff, 0x04, 0x00, 0x00, 0x00,
  0x0c, 0x00, 0x00, 0x00, 0x6b, 0x65, 0x72, 0x61, 0x73, 0x5f, 0x74, 0x65,
  0x6e, 0x73, 0x6f, 0x72, 0x00, 0x00, 0x00, 0x00, 0x02, 0x00, 0x00, 0x00,
  0x34, 0x00, 0x00, 0x00, 0x04, 0x00, 0x00, 0x00, 0xdc, 0xff, 0xff, 0xff,
  0x0d, 0x00, 0x00, 0x00, 0x04, 0x00, 0x00, 0x00, 0x13, 0x00, 0x00, 0x00,
  0x43, 0x4f, 0x4e, 0x56, 0x45, 0x52, 0x53, 0x49, 0x4f, 0x4e, 0x5f, 0x4d,
  0x45, 0x54, 0x41, 0x44, 0x41, 0x54, 0x41, 0x00, 0x08, 0x00, 0x0c, 0x00,
  0x08, 0x00, 0x04, 0x00, 0x08, 0x00, 0x00, 0x00, 0x0c, 0x00, 0x00, 0x00,
  0x04, 0x00, 0x00, 0x00, 0x13, 0x00, 0x00, 0x00, 0x6d, 0x69, 0x6e, 0x5f,
  0x72, 0x75, 0x6e, 0x74, 0x69, 0x6d, 0x65, 0x5f, 0x76, 0x65, 0x72, 0x73,
  0x69, 0x6f, 0x6e, 0x00, 0x0e, 0x00, 0x00, 0x00, 0x28, 0x08, 0x00, 0x00,
  0x20, 0x08, 0x00, 0x00, 0xd0, 0x07, 0x00, 0x00, 0xb8, 0x03, 0x00, 0x00,
  0xa4, 0x03, 0x00, 0x00, 0x54, 0x03, 0x00, 0x00, 0x04, 0x03, 0x00, 0x00,
  0xb4, 0x00, 0x00, 0x00, 0xac, 0x00, 0x00, 0x00, 0xa4, 0x00, 0x00, 0x00,
  0x9c, 0x00, 0x00, 0x00, 0x94, 0x00, 0x00, 0x00, 0x74, 0x00, 0x00, 0x00,
  0x04, 0x00, 0x00, 0x00, 0x66, 0xf8, 0xff, 0xff, 0x04, 0x00, 0x00, 0x00,
  0x60, 0x00, 0x00, 0x00, 0x0c, 0x00, 0x00, 0x00, 0x08, 0x00, 0x0e, 0x00,
  0x08, 0x00, 0x04, 0x00, 0x08, 0x00, 0x00, 0x00, 0x10, 0x00, 0x00, 0x00,
  0x28, 0x00, 0x00, 0x00, 0x00, 0x00, 0x06, 0x00, 0x08, 0x00, 0x04, 0x00,
  0x06, 0x00, 0x00, 0x00, 0x04, 0x00, 0x00, 0x00, 0x01, 0x00, 0x00, 0x00,
  0xea, 0x03, 0x00, 0x00, 0x0c, 0x00, 0x18, 0x00, 0x14, 0x00, 0x10, 0x00,
  0x0c, 0x00, 0x04, 0x00, 0x0c, 0x00, 0x00, 0x00, 0x9c, 0xe7, 0x1c, 0x56,
  0xf4, 0xb8, 0xc3, 0x4a, 0x02, 0x00, 0x00, 0x00, 0x02, 0x00, 0x00, 0x00,
  0x04, 0x00, 0x00, 0x00, 0x06, 0x00, 0x00, 0x00, 0x32, 0x2e, 0x31, 0x39,
  0x2e, 0x30, 0x00, 0x00, 0xd2, 0xf8, 0xff, 0xff, 0x04, 0x00, 0x00, 0x00,
  0x10, 0x00, 0x00, 0x00, 0x31, 0x2e, 0x31, 0x34, 0x2e, 0x30, 0x00, 0x00,
  0x00, 0x00, 0x00, 0x00, 0x00, 0x00, 0x00, 0x00, 0x10, 0xf3, 0xff, 0xff,
  0x14, 0xf3, 0xff, 0xff, 0x18, 0xf3, 0xff, 0xff, 0x1c, 0xf3, 0xff, 0xff,
  0xfe, 0xf8, 0xff, 0xff, 0x04, 0x00, 0x00, 0x00, 0x40, 0x02, 0x00, 0x00,
  0xba, 0x4f, 0x83, 0xbe, 0x53, 0x7f, 0x41, 0x3c, 0x73, 0x15, 0x4f, 0xbe,
  0xa1, 0x7b, 0x07, 0xc0, 0x76, 0x3d, 0x5e, 0xbf, 0xd1, 0xb4, 0x42, 0xbf,
  0x85, 0xc0, 0xd2, 0xbe, 0x1a, 0x8e, 0x7a, 0x3f, 0x2a, 0x41, 0x01, 0xbf,
  0x5e, 0x14, 0x3f, 0x3e, 0x1e, 0x32, 0xd1, 0xbc, 0xa6, 0x39, 0x28, 0x3f,
  0x10, 0x73, 0xe9, 0x3c, 0x16, 0x0d, 0x5c, 0x3f, 0xd2, 0xbd, 0x8e, 0x40,
  0xb2, 0xc8, 0x6a, 0x3e, 0x83, 0xd1, 0xa1, 0x3f, 0x54, 0x60, 0x00, 0x3f,
  0x28, 0x55, 0x34, 0xbc, 0x92, 0x4b, 0x2a, 0x3e, 0xc4, 0xc0, 0xaa, 0x3e,
  0xcc, 0x18, 0x32, 0xbc, 0xfb, 0x20, 0x97, 0x3e, 0x61, 0xd6, 0x2a, 0x40,
  0xf3, 0x4a, 0x83, 0xbe, 0x50, 0x3e, 0x7f, 0x3f, 0x0e, 0xaf, 0x4b, 0x3e,
  0x80, 0x59, 0xdc, 0x3d, 0x79, 0xc9, 0xb4, 0xbb, 0x06, 0x94, 0xd8, 0x3d,
  0x76, 0x82, 0x6b, 0xc0, 0xe5, 0x60, 0x10, 0x3f, 0xc1, 0x9b, 0x1d, 0x40,
  0x00, 0x9b, 0x72, 0x3f, 0x1e, 0x00, 0x4d, 0xbe, 0x68, 0xfd, 0xed, 0x3c,
  0x38, 0x3e, 0xca, 0xbf, 0x88, 0xb2, 0xcf, 0xbb, 0xe9, 0xad, 0x0d, 0x3f,
  0x05, 0xf8, 0xcd, 0xbf, 0xd4, 0x1a, 0x0f, 0xbf, 0x8e, 0x61, 0x7d, 0xc0,
  0x6c, 0xd1, 0xb1, 0xbe, 0xda, 0x36, 0xf3, 0x3f, 0x61, 0x95, 0x72, 0xbf,
  0xe0, 0x79, 0x18, 0x3e, 0x71, 0xca, 0x81, 0x3d, 0x92, 0x9a, 0x33, 0x3e,
  0x7d, 0x0b, 0x9c, 0xc0, 0x5e, 0xb9, 0x48, 0x3f, 0xc2, 0xa8, 0x17, 0x40,
  0x68, 0xd7, 0x98, 0x3f, 0x7f, 0x42, 0x47, 0x3f, 0x73, 0x8a, 0xac, 0xbe,
  0x25, 0xb8, 0xb2, 0x3e, 0x3d, 0x14, 0x4b, 0xc0, 0x2a, 0xee, 0x89, 0x3e,
  0x70, 0xb7, 0xe1, 0x3c, 0xd4, 0x6b, 0x4d, 0x3f, 0xa1, 0x51, 0x5b, 0x40,
  0x7e, 0x40, 0x7f, 0xbf, 0x22, 0xf6, 0xf4, 0x3e, 0x7c, 0xb3, 0xa2, 0x3f,
  0x05, 0x97, 0x86, 0xbf, 0x5a, 0x95, 0xcc, 0xbf, 0xcd, 0x3b, 0xe7, 0x3e,
  0x3c, 0x08, 0x8f, 0x3d, 0xfe, 0x52, 0x81, 0x3e, 0x14, 0xc6, 0x42, 0x40,
  0x89, 0x21, 0x7b, 0xbe, 0xb8, 0xa5, 0xab, 0x3f, 0x30, 0xb4, 0xa7, 0x3d,
  0x29, 0xad, 0xeb, 0x3d, 0x65, 0xab, 0x9a, 0x3d, 0xd7, 0x8b, 0xf8, 0xbf,
  0x14, 0xee, 0x05, 0xc0, 0x55, 0x7a, 0x20, 0xbf, 0xba, 0xcd, 0xdf, 0xbf,
  0xcf, 0x49, 0xf2, 0x3f, 0xd6, 0x50, 0x0a, 0xbf, 0x4f, 0x2b, 0x79, 0xbf,
  0xf1, 0x92, 0x68, 0x3e, 0x2d, 0x7c, 0x22, 0x3c, 0xf8, 0xbb, 0x58, 0xc0,
  0x2c, 0xdd, 0x67, 0x3d, 0x7d, 0x7a, 0x4d, 0xbf, 0x70, 0x94, 0xd9, 0xbf,
  0xd4, 0xd0, 0xe3, 0xbf, 0xb3, 0xc7, 0x67, 0xc0, 0x73, 0xf1, 0x22, 0x3f,
  0x3f, 0x67, 0x2a, 0x3e, 0xb5, 0xa9, 0x55, 0xc0, 0xfe, 0xb9, 0x33, 0xbd,
  0x14, 0x02, 0x21, 0xb9, 0x4f, 0xe5, 0x99, 0x3d, 0xe8, 0xd4, 0x31, 0x40,
  0x90, 0x6b, 0xb4, 0xbf, 0xb9, 0xb4, 0x15, 0x40, 0x6a, 0xdd, 0x37, 0x3f,
  0xde, 0x1f, 0x30, 0x3e, 0xc0, 0x8c, 0x12, 0x3d, 0x6c, 0xc3, 0x11, 0x3f,
  0x96, 0xf2, 0xc0, 0x3c, 0x88, 0x0a, 0x72, 0x3f, 0xde, 0x32, 0x98, 0x40,
  0xe3, 0x20, 0x5b, 0x3d, 0x29, 0x0c, 0x33, 0x3f, 0x0b, 0x63, 0x81, 0x3c,
  0x0d, 0xfc, 0x77, 0xbe, 0x20, 0x3b, 0xe9, 0xbf, 0x9f, 0x1c, 0xcb, 0x3e,
  0x32, 0x8f, 0x40, 0x3d, 0xca, 0x72, 0x95, 0x3e, 0x42, 0x29, 0x44, 0x40,
  0x79, 0x83, 0x0f, 0xbf, 0x53, 0x31, 0x00, 0x40, 0x62, 0x0c, 0x26, 0xbe,
  0x91, 0x65, 0x1b, 0x3f, 0xc7, 0x9e, 0x32, 0xc0, 0x2e, 0x51, 0x15, 0x3e,
  0x66, 0x33, 0x25, 0x3d, 0x99, 0x6f, 0xb7, 0x3f, 0x94, 0xfa, 0x8a, 0x40,
  0x70, 0x48, 0x6e, 0xbf, 0x8b, 0x30, 0x9c, 0x3f, 0x83, 0xf7, 0xab, 0x3e,
  0x27, 0x41, 0x5a, 0x3e, 0xb5, 0x4f, 0xa1, 0x3c, 0xba, 0x4c, 0x5b, 0x3f,
  0x65, 0x74, 0x52, 0xbf, 0x93, 0xa7, 0xcc, 0xbf, 0x1f, 0x93, 0xec, 0xbf,
  0x1e, 0x60, 0x0b, 0xc0, 0xb9, 0x5a, 0x97, 0xbf, 0x71, 0x0b, 0xac, 0xbf,
  0xe6, 0x21, 0x01, 0xc0, 0xfb, 0x5f, 0xa6, 0x3d, 0xc8, 0xe0, 0xc5, 0x3e,
  0x4f, 0xe9, 0xcf, 0xbe, 0x16, 0x74, 0xb5, 0xbd, 0xcc, 0xb0, 0x8d, 0xc0,
  0x70, 0x61, 0x1c, 0xbe, 0x8b, 0xb8, 0xc0, 0x3f, 0x91, 0xab, 0x10, 0xbf,
  0x4a, 0xfb, 0xff, 0xff, 0x04, 0x00, 0x00, 0x00, 0x40, 0x00, 0x00, 0x00,
  0x73, 0x99, 0x55, 0x3f, 0xa4, 0x2a, 0xfa, 0xbf, 0xff, 0x45, 0xf0, 0xbe,
  0x62, 0xf8, 0xf2, 0xbf, 0x68, 0x35, 0x29, 0x3f, 0xcb, 0x32, 0x20, 0xc0,
  0xc0, 0x6b, 0xaf, 0xbf, 0xdb, 0xbe, 0x33, 0xbf, 0xe4, 0xca, 0x06, 0x3f,
  0xee, 0x34, 0x61, 0xbf, 0x23, 0x1f, 0x3d, 0xbe, 0xfd, 0xc2, 0xc0, 0xbf,
  0x6b, 0xe3, 0xd3, 0xbe, 0x02, 0x90, 0xf7, 0xbf, 0xf7, 0x8c, 0x17, 0xc0,
  0xfc, 0x8b, 0x38, 0x3e, 0x96, 0xfb, 0xff, 0xff, 0x04, 0x00, 0x00, 0x00,
  0x40, 0x00, 0x00, 0x00, 0xff, 0x47, 0xb3, 0xbf, 0x2c, 0x4a, 0x0b, 0x3e,
  0x17, 0xe5, 0xde, 0x3e, 0xfa, 0x70, 0x9f, 0x3e, 0x01, 0xf2, 0xe7, 0x3e,
  0x9e, 0xd8, 0xea, 0x3e, 0x5b, 0xba, 0xaf, 0x3e, 0x23, 0x03, 0x5a, 0x3e,
  0x98, 0xc2, 0x08, 0x3f, 0x15, 0xeb, 0x1d, 0xc0, 0x91, 0xae, 0x7f, 0x3e,
  0x11, 0x9c, 0x6c, 0xbf, 0x86, 0xca, 0x86, 0x3e, 0x91, 0x5f, 0x90, 0x3e,
  0xb4, 0x50, 0x44, 0x3e, 0xd1, 0x16, 0xcd, 0xbe, 0xe2, 0xfb, 0xff, 0xff,
  0x04, 0x00, 0x00, 0x00, 0x04, 0x00, 0x00, 0x00, 0x87, 0xf3, 0xdb, 0x3f,
  0xf2, 0xfb, 0xff, 0xff, 0x04, 0x00, 0x00, 0x00, 0x00, 0x04, 0x00, 0x00,
  0xbb, 0x3b, 0xc0, 0xbd, 0x7c, 0x6c, 0x0a, 0xbe, 0x12, 0x2b, 0x16, 0xbd,
  0x4a, 0xaf, 0xbb, 0x3f, 0x08, 0x51, 0x36, 0xbe, 0xcc, 0x0c, 0xc7, 0x3f,
  0xfd, 0xc7, 0x00, 0x3f, 0x70, 0x29, 0x08, 0x3f, 0xfc, 0xc7, 0xfe, 0x3e,
  0x9d, 0xa2, 0xb4, 0xbd, 0x32, 0xcc, 0xab, 0x3d, 0x4c, 0x19, 0x62, 0xbd,
  0x3a, 0x24, 0x4a, 0xbd, 0xb1, 0xcd, 0x54, 0x3e, 0x42, 0xc8, 0x4e, 0xbe,
  0x1b, 0x72, 0x71, 0xbe, 0xec, 0xa6, 0x89, 0x3e, 0x82, 0xa7, 0xcf, 0xbf,
  0xb4, 0x59, 0x1d, 0xbf, 0x89, 0x51, 0x00, 0xc0, 0xed, 0x1f, 0x08, 0x3f,
  0xb7, 0x0e, 0xd6, 0xbf, 0x37, 0x6b, 0x13, 0xc0, 0xd5, 0x7d, 0x15, 0x3e,
  0x98, 0xc0, 0x74, 0x3c, 0x71, 0xe7, 0x21, 0xc0, 0x00, 0x68, 0xe7, 0xbe,
  0xe1, 0xbe, 0x82, 0xbf, 0x12, 0xd5, 0xa9, 0x3e, 0xe1, 0xc7, 0x0b, 0xc0,
  0xb9, 0x38, 0x73, 0xbf, 0xef, 0x28, 0xb5, 0xbc, 0xf8, 0x6a, 0xc8, 0xbf,
  0x18, 0x0f, 0x30, 0xbe, 0x49, 0x97, 0xbb, 0x3c, 0x45, 0xd6, 0xe7, 0x3f,
  0x1a, 0xe2, 0x4e, 0x3e, 0xcc, 0xdc, 0x1d, 0xbf, 0xca, 0xfe, 0x76, 0x3d,
  0xb3, 0x0e, 0xef, 0xc0, 0xdb, 0x06, 0xbc, 0xc0, 0xe5, 0x4b, 0xf4, 0xc0,
  0x76, 0xe6, 0x88, 0x3e, 0x66, 0xfa, 0xa0, 0x3c, 0xb6, 0x24, 0xc0, 0xc0,
  0x0f, 0x69, 0xac, 0xbe, 0x25, 0xf4, 0x99, 0xbd, 0xf6, 0x49, 0xaf, 0xbc,
  0x38, 0x9e, 0x01, 0xc0, 0x8c, 0xc1, 0x64, 0xbd, 0x92, 0x12, 0x45, 0x3d,
  0xe1, 0x76, 0xb2, 0x40, 0xaf, 0xad, 0x78, 0xc0, 0x29, 0x5d, 0x88, 0xbe,
  0x6b, 0x3e, 0x8c, 0x3e, 0x12, 0x18, 0xd1, 0xc0, 0x7c, 0x3c, 0x0b, 0x3c,
  0x9c, 0xcf, 0xcc, 0xc0, 0xc6, 0x10, 0xf8, 0x3e, 0x05, 0xda, 0x16, 0x3d,
  0x52, 0x5a, 0x94, 0xc0, 0xc0, 0x49, 0x28, 0xbf, 0x34, 0x57, 0x48, 0xbe,
  0xc8, 0xbd, 0x4c, 0x3d, 0xe3, 0xd0, 0xbd, 0x3d, 0xd7, 0x53, 0xc3, 0xc0,
  0x4d, 0xc9, 0x45, 0x3e, 0x45, 0x61, 0x96, 0xc0, 0x60, 0x03, 0xe6, 0x3c,
  0x7e, 0x9d, 0x0d, 0xc0, 0x0b, 0x57, 0x19, 0xbd, 0xa4, 0x5a, 0x22, 0xbf,
  0xd5, 0x73, 0x84, 0x3d, 0x75, 0x29, 0xaf, 0xbf, 0x8b, 0x89, 0x5e, 0x3e,
  0x3f, 0x6f, 0x17, 0xc0, 0x7d, 0x67, 0x16, 0x3e, 0x78, 0x8e, 0x62, 0x3f,
  0x87, 0x95, 0xe6, 0xbf, 0xca, 0xa0, 0xa5, 0xbe, 0x15, 0x34, 0xc2, 0xc0,
  0xc7, 0x09, 0xb1, 0x3b, 0xb8, 0x34, 0xa5, 0x3d, 0x57, 0xa8, 0xa6, 0x3f,
  0x02, 0x40, 0xa1, 0xbd, 0x68, 0xb8, 0x58, 0xbf, 0xfa, 0xd9, 0x66, 0xbd,
  0x09, 0x65, 0x31, 0x3d, 0x8c, 0x95, 0xb7, 0xc0, 0x58, 0x35, 0xec, 0xbf,
  0x7f, 0x0e, 0xff, 0xbe, 0xfb, 0xdf, 0x8f, 0x3c, 0xe3, 0x61, 0x2d, 0xbd,
  0xdb, 0x7e, 0xb1, 0x3f, 0xbf, 0x3c, 0x8b, 0xbd, 0x28, 0x4b, 0xc6, 0xbd,
  0xaf, 0x69, 0x44, 0xbf, 0x59, 0x00, 0xe8, 0x3d, 0xab, 0x9b, 0x75, 0x3d,
  0xb6, 0x80, 0x92, 0x40, 0xb4, 0x51, 0xa2, 0xbf, 0x94, 0xea, 0x68, 0xbe,
  0x6a, 0x1d, 0xda, 0x3e, 0xfd, 0xdd, 0x8c, 0xc0, 0xbf, 0x73, 0xa3, 0xc0,
  0xd6, 0x9a, 0xa9, 0xc0, 0x0c, 0xd8, 0xcf, 0x3d, 0xea, 0x92, 0x3d, 0x3d,
  0x41, 0x8d, 0x5c, 0xc0, 0x37, 0x8d, 0x61, 0xbe, 0x39, 0x7f, 0x4e, 0x3d,
  0x9a, 0x42, 0xf2, 0xbf, 0xfc, 0x2c, 0x3e, 0xc0, 0x9f, 0xb8, 0x85, 0x3d,
  0x45, 0x9f, 0x4d, 0x3e, 0x69, 0xec, 0xaa, 0xbe, 0x14, 0x42, 0x6f, 0xbf,
  0x34, 0xe5, 0x8a, 0xbe, 0x89, 0xb8, 0x19, 0xbe, 0xa0, 0x30, 0xc8, 0x3d,
  0x39, 0xf6, 0x1e, 0xc0, 0x99, 0x2f, 0x11, 0xc0, 0x10, 0xdb, 0xaf, 0x3c,
  0xc6, 0x34, 0xd3, 0x3d, 0x57, 0x0b, 0x0f, 0x3e, 0x28, 0xa6, 0xa0, 0x3e,
  0xd9, 0xed, 0x4f, 0xbf, 0x5a, 0xfa, 0x30, 0xbf, 0xa8, 0x39, 0xae, 0x3b,
  0xc3, 0x98, 0x76, 0xc0, 0xb5, 0xb2, 0xb5, 0x3d, 0x27, 0x12, 0x64, 0xc0,
  0x0e, 0x51, 0xab, 0x3d, 0x57, 0xb7, 0x0a, 0xc0, 0x8f, 0xae, 0x53, 0xbf,
  0x48, 0x96, 0xd7, 0xbd, 0x30, 0xa2, 0x72, 0x3c, 0x6f, 0x5b, 0xb2, 0xbf,
  0xc5, 0x9e, 0x85, 0xbd, 0x97, 0xf3, 0x00, 0xc0, 0x61, 0x5d, 0x12, 0x3e,
  0xf9, 0x8e, 0x96, 0x3f, 0xfe, 0xce, 0xf1, 0xbf, 0x65, 0x8b, 0x79, 0x3e,
  0x78, 0x12, 0x9e, 0x3e, 0x33, 0xa6, 0x4d, 0xbc, 0x98, 0x0d, 0xda, 0x3c,
  0x2e, 0x3d, 0xe0, 0x3f, 0xc4, 0xe4, 0x87, 0xbc, 0x47, 0x98, 0x07, 0x40,
  0xe5, 0xc8, 0x2b, 0x3f, 0x2d, 0x76, 0x28, 0xbd, 0x3e, 0x33, 0x30, 0xbf,
  0xe8, 0x44, 0x18, 0x3f, 0x40, 0x39, 0x12, 0x3f, 0x5a, 0x96, 0x8a, 0xbd,
  0x32, 0x86, 0x14, 0xbd, 0xae, 0xfb, 0x82, 0x3e, 0x16, 0x3d, 0xf2, 0xbc,
  0x9e, 0x92, 0x00, 0x3c, 0x9b, 0x02, 0x1d, 0xbf, 0x7f, 0x1d, 0x9a, 0xbf,
  0x21, 0x96, 0x82, 0xbf, 0x0d, 0x46, 0x9e, 0xbf, 0x47, 0x72, 0xf3, 0x3e,
  0xc2, 0x4e, 0xac, 0xbf, 0x7b, 0x5e, 0x2c, 0xc0, 0x7a, 0xe6, 0xa9, 0x3e,
  0x4c, 0x6e, 0x62, 0xbb, 0x86, 0xf8, 0xe5, 0x3e, 0xdf, 0xb0, 0xc9, 0xbf,
  0xc1, 0x0c, 0x63, 0xbf, 0x47, 0x03, 0x27, 0x3f, 0xda, 0xf8, 0x15, 0xc0,
  0xb3, 0xf8, 0x98, 0xbe, 0x2b, 0x88, 0x32, 0x3e, 0x32, 0x5e, 0xc3, 0xbf,
  0x39, 0x8d, 0x3b, 0xbe, 0xdc, 0x05, 0x5f, 0x3e, 0xa1, 0xa4, 0x33, 0x40,
  0xe4, 0x06, 0x7d, 0xc0, 0x57, 0x41, 0x41, 0x3f, 0x01, 0x6f, 0xe6, 0x3e,
  0xcc, 0x23, 0xe8, 0xbd, 0x5a, 0x3a, 0xdc, 0x3e, 0x5d, 0x32, 0x37, 0xbf,
  0xf1, 0xc1, 0xbb, 0xbe, 0xb4, 0x4b, 0x36, 0x3d, 0xac, 0x9f, 0x7c, 0x3f,
  0x58, 0x1d, 0x5b, 0x3e, 0xc1, 0xd1, 0x51, 0xbf, 0x40, 0x95, 0x1f, 0xc0,
  0x6d, 0x74, 0xd5, 0xbf, 0xb4, 0x03, 0x41, 0x3d, 0x42, 0xed, 0xc6, 0x3d,
  0x79, 0xc5, 0x81, 0x40, 0xcd, 0x65, 0x59, 0xc0, 0xaf, 0x53, 0x8e, 0xbe,
  0x74, 0x06, 0x0b, 0xbe, 0xf8, 0xb7, 0xb3, 0xc0, 0xd9, 0xa1, 0x7b, 0xc0,
  0x89, 0xc7, 0x88, 0xbe, 0x30, 0xc0, 0x6f, 0x3f, 0xad, 0x56, 0xc0, 0xbc,
  0xa6, 0x9e, 0x32, 0xc0, 0x67, 0x05, 0xa0, 0xbe, 0xc9, 0xac, 0x5a, 0xbe,
  0x01, 0x5f, 0xd1, 0xbf, 0x0f, 0x2c, 0xc4, 0xbc, 0xfd, 0x5e, 0xa0, 0xbf,
  0x04, 0x26, 0xcf, 0xbd, 0x20, 0x70, 0xb8, 0xbf, 0x5b, 0xf8, 0xc0, 0xbd,
  0xcb, 0x11, 0x8e, 0xbf, 0x8e, 0x19, 0x54, 0xc0, 0xf3, 0x78, 0xc6, 0x3e,
  0x91, 0xa4, 0x1e, 0xbd, 0x46, 0xfe, 0x04, 0xbf, 0x93, 0x41, 0x48, 0xc0,
  0x0c, 0x63, 0x78, 0xbf, 0x1b, 0xf9, 0xb1, 0x3d, 0xae, 0x71, 0x38, 0xc0,
  0xdb, 0x3b, 0xbb, 0xbf, 0xa7, 0xc9, 0xc6, 0x3e, 0x49, 0xd9, 0xa1, 0xc0,
  0xb4, 0x39, 0xd6, 0x3d, 0xe2, 0x11, 0xae, 0x3e, 0x04, 0xec, 0xba, 0x3f,
  0xd0, 0x64, 0xd4, 0xbf, 0xea, 0x7a, 0x6c, 0x3c, 0x35, 0x20, 0xbc, 0xbc,
  0x82, 0xef, 0x24, 0x3c, 0xca, 0x12, 0x4d, 0xc0, 0xcc, 0xd6, 0x47, 0xc0,
  0xfc, 0xb9, 0x24, 0xbd, 0x2c, 0x0a, 0xdd, 0x3b, 0xd3, 0x0f, 0xb4, 0xbc,
  0xc5, 0xcd, 0x53, 0x3e, 0xac, 0x13, 0x55, 0xbf, 0xb2, 0x10, 0xf2, 0xbf,
  0xf5, 0x22, 0x08, 0xc1, 0xba, 0xab, 0x18, 0xbe, 0xd6, 0x95, 0x94, 0xbd,
  0x03, 0xaa, 0xa7, 0x3f, 0x67, 0xce, 0xa6, 0xbd, 0xec, 0x0e, 0x95, 0x3f,
  0x78, 0x50, 0x7b, 0x3d, 0xad, 0xae, 0x57, 0x3e, 0xcc, 0x2f, 0x86, 0xc0,
  0x68, 0x58, 0xa0, 0xbf, 0x73, 0xd6, 0xb9, 0x3e, 0x4e, 0xdc, 0x0c, 0xbe,
  0x8e, 0xd7, 0xbf, 0x3e, 0x47, 0xa7, 0x6e, 0x3f, 0x4d, 0xe4, 0xf8, 0xbd,
  0x3c, 0x9a, 0xb2, 0xbc, 0x00, 0x00, 0x06, 0x00, 0x08, 0x00, 0x04, 0x00,
  0x06, 0x00, 0x00, 0x00, 0x04, 0x00, 0x00, 0x00, 0x40, 0x00, 0x00, 0x00,
  0x7c, 0x19, 0x2d, 0xc0, 0xb7, 0x3d, 0x48, 0x40, 0xcb, 0xa9, 0x04, 0xc0,
  0xc9, 0x37, 0x32, 0xc0, 0xf5, 0x8a, 0x8e, 0x3f, 0xc1, 0x3b, 0x7f, 0xbf,
  0xa0, 0x64, 0x30, 0xc0, 0x01, 0x9a, 0x05, 0xc0, 0xc9, 0x66, 0x6c, 0x3f,
  0x15, 0x56, 0x1c, 0xc0, 0x1c, 0x6a, 0xc9, 0x3f, 0x07, 0x37, 0x49, 0xc0,
  0x4f, 0x93, 0x42, 0xc0, 0x72, 0xdd, 0x02, 0x40, 0x42, 0x03, 0x26, 0xc0,
  0xf7, 0xce, 0xc1, 0xbf, 0x74, 0xfa, 0xff, 0xff, 0x78, 0xfa, 0xff, 0xff,
  0x0f, 0x00, 0x00, 0x00, 0x4d, 0x4c, 0x49, 0x52, 0x20, 0x43, 0x6f, 0x6e,
  0x76, 0x65, 0x72, 0x74, 0x65, 0x64, 0x2e, 0x00, 0x01, 0x00, 0x00, 0x00,
  0x14, 0x00, 0x00, 0x00, 0x00, 0x00, 0x0e, 0x00, 0x18, 0x00, 0x14, 0x00,
  0x10, 0x00, 0x0c, 0x00, 0x08, 0x00, 0x04, 0x00, 0x0e, 0x00, 0x00, 0x00,
  0x14, 0x00, 0x00, 0x00, 0x1c, 0x00, 0x00, 0x00, 0x18, 0x01, 0x00, 0x00,
  0x1c, 0x01, 0x00, 0x00, 0x20, 0x01, 0x00, 0x00, 0x04, 0x00, 0x00, 0x00,
  0x6d, 0x61, 0x69, 0x6e, 0x00, 0x00, 0x00, 0x00, 0x04, 0x00, 0x00, 0x00,
  0xc0, 0x00, 0x00, 0x00, 0x78, 0x00, 0x00, 0x00, 0x34, 0x00, 0x00, 0x00,
  0x10, 0x00, 0x00, 0x00, 0x00, 0x00, 0x0a, 0x00, 0x10, 0x00, 0x0c, 0x00,
  0x08, 0x00, 0x04, 0x00, 0x0a, 0x00, 0x00, 0x00, 0x0c, 0x00, 0x00, 0x00,
  0x10, 0x00, 0x00, 0x00, 0x01, 0x00, 0x00, 0x00, 0x01, 0x00, 0x00, 0x00,
  0x0a, 0x00, 0x00, 0x00, 0x01, 0x00, 0x00, 0x00, 0x09, 0x00, 0x00, 0x00,
  0xce, 0xff, 0xff, 0xff, 0x10, 0x00, 0x00, 0x00, 0x00, 0x00, 0x00, 0x08,
  0x0c, 0x00, 0x00, 0x00, 0x10, 0x00, 0x00, 0x00, 0x20, 0xfb, 0xff, 0xff,
  0x01, 0x00, 0x00, 0x00, 0x09, 0x00, 0x00, 0x00, 0x03, 0x00, 0x00, 0x00,
  0x08, 0x00, 0x00, 0x00, 0x01, 0x00, 0x00, 0x00, 0x03, 0x00, 0x00, 0x00,
  0x00, 0x00, 0x0e, 0x00, 0x14, 0x00, 0x00, 0x00, 0x10, 0x00, 0x0c, 0x00,
  0x0b, 0x00, 0x04, 0x00, 0x0e, 0x00, 0x00, 0x00, 0x10, 0x00, 0x00, 0x00,
  0x00, 0x00, 0x00, 0x08, 0x10, 0x00, 0x00, 0x00, 0x14, 0x00, 0x00, 0x00,
  0xba, 0xff, 0xff, 0xff, 0x00, 0x00, 0x00, 0x01, 0x01, 0x00, 0x00, 0x00,
  0x08, 0x00, 0x00, 0x00, 0x03, 0x00, 0x00, 0x00, 0x07, 0x00, 0x00, 0x00,
  0x02, 0x00, 0x00, 0x00, 0x04, 0x00, 0x00, 0x00, 0x00, 0x00, 0x0e, 0x00,
  0x16, 0x00, 0x00, 0x00, 0x10, 0x00, 0x0c, 0x00, 0x0b, 0x00, 0x04, 0x00,
  0x0e, 0x00, 0x00, 0x00, 0x18, 0x00, 0x00, 0x00, 0x00, 0x00, 0x00, 0x08,
  0x18, 0x00, 0x00, 0x00, 0x1c, 0x00, 0x00, 0x00, 0x00, 0x00, 0x06, 0x00,
  0x08, 0x00, 0x07, 0x00, 0x06, 0x00, 0x00, 0x00, 0x00, 0x00, 0x00, 0x01,
  0x01, 0x00, 0x00, 0x00, 0x07, 0x00, 0x00, 0x00, 0x03, 0x00, 0x00, 0x00,
  0x00, 0x00, 0x00, 0x00, 0x06, 0x00, 0x00, 0x00, 0x05, 0x00, 0x00, 0x00,
  0x01, 0x00, 0x00, 0x00, 0x0a, 0x00, 0x00, 0x00, 0x01, 0x00, 0x00, 0x00,
  0x00, 0x00, 0x00, 0x00, 0x0b, 0x00, 0x00, 0x00, 0xf8, 0x03, 0x00, 0x00,
  0xa0, 0x03, 0x00, 0x00, 0x48, 0x03, 0x00, 0x00, 0x0c, 0x03, 0x00, 0x00,
  0xb0, 0x02, 0x00, 0x00, 0x58, 0x02, 0x00, 0x00, 0x0c, 0x02, 0x00, 0x00,
  0x78, 0x01, 0x00, 0x00, 0xdc, 0x00, 0x00, 0x00, 0x60, 0x00, 0x00, 0x00,
  0x04, 0x00, 0x00, 0x00, 0x4a, 0xfc, 0xff, 0xff, 0x00, 0x00, 0x00, 0x01,
  0x14, 0x00, 0x00, 0x00, 0x1c, 0x00, 0x00, 0x00, 0x1c, 0x00, 0x00, 0x00,
  0x0b, 0x00, 0x00, 0x00, 0x34, 0x00, 0x00, 0x00, 0x02, 0x00, 0x00, 0x00,
  0xff, 0xff, 0xff, 0xff, 0x01, 0x00, 0x00, 0x00, 0x34, 0xfc, 0xff, 0xff,
  0x1b, 0x00, 0x00, 0x00, 0x53, 0x74, 0x61, 0x74, 0x65, 0x66, 0x75, 0x6c,
  0x50, 0x61, 0x72, 0x74, 0x69, 0x74, 0x69, 0x6f, 0x6e, 0x65, 0x64, 0x43,
  0x61, 0x6c, 0x6c, 0x5f, 0x31, 0x3a, 0x30, 0x00, 0x02, 0x00, 0x00, 0x00,
  0x01, 0x00, 0x00, 0x00, 0x01, 0x00, 0x00, 0x00, 0xa2, 0xfc, 0xff, 0xff,
  0x00, 0x00, 0x00, 0x01, 0x14, 0x00, 0x00, 0x00, 0x1c, 0x00, 0x00, 0x00,
  0x1c, 0x00, 0x00, 0x00, 0x0a, 0x00, 0x00, 0x00, 0x54, 0x00, 0x00, 0x00,
  0x02, 0x00, 0x00, 0x00, 0xff, 0xff, 0xff, 0xff, 0x01, 0x00, 0x00, 0x00,
  0x8c, 0xfc, 0xff, 0xff, 0x38, 0x00, 0x00, 0x00, 0x73, 0x65, 0x71, 0x75,
  0x65, 0x6e, 0x74, 0x69, 0x61, 0x6c, 0x5f, 0x31, 0x2f, 0x64, 0x65, 0x6e,
  0x73, 0x65, 0x5f, 0x32, 0x5f, 0x31, 0x2f, 0x4d, 0x61, 0x74, 0x4d, 0x75,
  0x6c, 0x3b, 0x73, 0x65, 0x71, 0x75, 0x65, 0x6e, 0x74, 0x69, 0x61, 0x6c,
  0x5f, 0x31, 0x2f, 0x64, 0x65, 0x6e, 0x73, 0x65, 0x5f, 0x32, 0x5f, 0x31,
  0x2f, 0x41, 0x64, 0x64, 0x00, 0x00, 0x00, 0x00, 0x02, 0x00, 0x00, 0x00,
  0x01, 0x00, 0x00, 0x00, 0x01, 0x00, 0x00, 0x00, 0x1a, 0xfd, 0xff, 0xff,
  0x00, 0x00, 0x00, 0x01, 0x14, 0x00, 0x00, 0x00, 0x1c, 0x00, 0x00, 0x00,
  0x1c, 0x00, 0x00, 0x00, 0x09, 0x00, 0x00, 0x00, 0x74, 0x00, 0x00, 0x00,
  0x02, 0x00, 0x00, 0x00, 0xff, 0xff, 0xff, 0xff, 0x10, 0x00, 0x00, 0x00,
  0x04, 0xfd, 0xff, 0xff, 0x58, 0x00, 0x00, 0x00, 0x73, 0x65, 0x71, 0x75,
  0x65, 0x6e, 0x74, 0x69, 0x61, 0x6c, 0x5f, 0x31, 0x2f, 0x64, 0x65, 0x6e,
  0x73, 0x65, 0x5f, 0x31, 0x5f, 0x32, 0x2f, 0x4d, 0x61, 0x74, 0x4d, 0x75,
  0x6c, 0x3b, 0x73, 0x65, 0x71, 0x75, 0x65, 0x6e, 0x74, 0x69, 0x61, 0x6c,
  0x5f, 0x31, 0x2f, 0x64, 0x65, 0x6e, 0x73, 0x65, 0x5f, 0x31, 0x5f, 0x32,
  0x2f, 0x52, 0x65, 0x6c, 0x75, 0x3b, 0x73, 0x65, 0x71, 0x75, 0x65, 0x6e,
  0x74, 0x69, 0x61, 0x6c, 0x5f, 0x31, 0x2f, 0x64, 0x65, 0x6e, 0x73, 0x65,
  0x5f, 0x31, 0x5f, 0x32, 0x2f, 0x42, 0x69, 0x61, 0x73, 0x41, 0x64, 0x64,
  0x00, 0x00, 0x00, 0x00, 0x02, 0x00, 0x00, 0x00, 0x01, 0x00, 0x00, 0x00,
  0x10, 0x00, 0x00, 0x00, 0xb2, 0xfd, 0xff, 0xff, 0x00, 0x00, 0x00, 0x01,
  0x14, 0x00, 0x00, 0x00, 0x1c, 0x00, 0x00, 0x00, 0x1c, 0x00, 0x00, 0x00,
  0x08, 0x00, 0x00, 0x00, 0x6c, 0x00, 0x00, 0x00, 0x02, 0x00, 0x00, 0x00,
  0xff, 0xff, 0xff, 0xff, 0x10, 0x00, 0x00, 0x00, 0x9c, 0xfd, 0xff, 0xff,
  0x52, 0x00, 0x00, 0x00, 0x73, 0x65, 0x71, 0x75, 0x65, 0x6e, 0x74, 0x69,
  0x61, 0x6c, 0x5f, 0x31, 0x2f, 0x64, 0x65, 0x6e, 0x73, 0x65, 0x5f, 0x31,
  0x2f, 0x4d, 0x61, 0x74, 0x4d, 0x75, 0x6c, 0x3b, 0x73, 0x65, 0x71, 0x75,
  0x65, 0x6e, 0x74, 0x69, 0x61, 0x6c, 0x5f, 0x31, 0x2f, 0x64, 0x65, 0x6e,
  0x73, 0x65, 0x5f, 0x31, 0x2f, 0x52, 0x65, 0x6c, 0x75, 0x3b, 0x73, 0x65,
  0x71, 0x75, 0x65, 0x6e, 0x74, 0x69, 0x61, 0x6c, 0x5f, 0x31, 0x2f, 0x64,
  0x65, 0x6e, 0x73, 0x65, 0x5f, 0x31, 0x2f, 0x42, 0x69, 0x61, 0x73, 0x41,
  0x64, 0x64, 0x00, 0x00, 0x02, 0x00, 0x00, 0x00, 0x01, 0x00, 0x00, 0x00,
  0x10, 0x00, 0x00, 0x00, 0x96, 0xfe, 0xff, 0xff, 0x00, 0x00, 0x00, 0x01,
  0x10, 0x00, 0x00, 0x00, 0x10, 0x00, 0x00, 0x00, 0x07, 0x00, 0x00, 0x00,
  0x28, 0x00, 0x00, 0x00, 0x1c, 0xfe, 0xff, 0xff, 0x1b, 0x00, 0x00, 0x00,
  0x73, 0x65, 0x71, 0x75, 0x65, 0x6e, 0x74, 0x69, 0x61, 0x6c, 0x5f, 0x31,
  0x2f, 0x64, 0x65, 0x6e, 0x73, 0x65, 0x5f, 0x31, 0x2f, 0x4d, 0x61, 0x74,
  0x4d, 0x75, 0x6c, 0x00, 0x02, 0x00, 0x00, 0x00, 0x10, 0x00, 0x00, 0x00,
  0x09, 0x00, 0x00, 0x00, 0xde, 0xfe, 0xff, 0xff, 0x00, 0x00, 0x00, 0x01,
  0x10, 0x00, 0x00, 0x00, 0x10, 0x00, 0x00, 0x00, 0x06, 0x00, 0x00, 0x00,
  0x38, 0x00, 0x00, 0x00, 0x64, 0xfe, 0xff, 0xff, 0x2b, 0x00, 0x00, 0x00,
  0x73, 0x65, 0x71, 0x75, 0x65, 0x6e, 0x74, 0x69, 0x61, 0x6c, 0x5f, 0x31,
  0x2f, 0x64, 0x65, 0x6e, 0x73, 0x65, 0x5f, 0x31, 0x2f, 0x42, 0x69, 0x61,
  0x73, 0x41, 0x64, 0x64, 0x2f, 0x52, 0x65, 0x61, 0x64, 0x56, 0x61, 0x72,
  0x69, 0x61, 0x62, 0x6c, 0x65, 0x4f, 0x70, 0x00, 0x01, 0x00, 0x00, 0x00,
  0x10, 0x00, 0x00, 0x00, 0x32, 0xff, 0xff, 0xff, 0x00, 0x00, 0x00, 0x01,
  0x10, 0x00, 0x00, 0x00, 0x10, 0x00, 0x00, 0x00, 0x05, 0x00, 0x00, 0x00,
  0x3c, 0x00, 0x00, 0x00, 0xb8, 0xfe, 0xff, 0xff, 0x2d, 0x00, 0x00, 0x00,
  0x73, 0x65, 0x71, 0x75, 0x65, 0x6e, 0x74, 0x69, 0x61, 0x6c, 0x5f, 0x31,
  0x2f, 0x64, 0x65, 0x6e, 0x73, 0x65, 0x5f, 0x31, 0x5f, 0x32, 0x2f, 0x42,
  0x69, 0x61, 0x73, 0x41, 0x64, 0x64, 0x2f, 0x52, 0x65, 0x61, 0x64, 0x56,
  0x61, 0x72, 0x69, 0x61, 0x62, 0x6c, 0x65, 0x4f, 0x70, 0x00, 0x00, 0x00,
  0x01, 0x00, 0x00, 0x00, 0x10, 0x00, 0x00, 0x00, 0x8a, 0xff, 0xff, 0xff,
  0x00, 0x00, 0x00, 0x01, 0x10, 0x00, 0x00, 0x00, 0x10, 0x00, 0x00, 0x00,
  0x04, 0x00, 0x00, 0x00, 0x1c, 0x00, 0x00, 0x00, 0x10, 0xff, 0xff, 0xff,
  0x0f, 0x00, 0x00, 0x00, 0x61, 0x72, 0x69, 0x74, 0x68, 0x2e, 0x63, 0x6f,
  0x6e, 0x73, 0x74, 0x61, 0x6e, 0x74, 0x32, 0x00, 0x01, 0x00, 0x00, 0x00,
  0x01, 0x00, 0x00, 0x00, 0xc2, 0xff, 0xff, 0xff, 0x00, 0x00, 0x00, 0x01,
  0x10, 0x00, 0x00, 0x00, 0x10, 0x00, 0x00, 0x00, 0x03, 0x00, 0x00, 0x00,
  0x1c, 0x00, 0x00, 0x00, 0x48, 0xff, 0xff, 0xff, 0x0f, 0x00, 0x00, 0x00,
  0x61, 0x72, 0x69, 0x74, 0x68, 0x2e, 0x63, 0x6f, 0x6e, 0x73, 0x74, 0x61,
  0x6e, 0x74, 0x31, 0x00, 0x02, 0x00, 0x00, 0x00, 0x10, 0x00, 0x00, 0x00,
  0x10, 0x00, 0x00, 0x00, 0x00, 0x00, 0x16, 0x00, 0x18, 0x00, 0x14, 0x00,
  0x00, 0x00, 0x10, 0x00, 0x0c, 0x00, 0x08, 0x00, 0x00, 0x00, 0x00, 0x00,
  0x00, 0x00, 0x07, 0x00, 0x16, 0x00, 0x00, 0x00, 0x00, 0x00, 0x00, 0x01,
  0x10, 0x00, 0x00, 0x00, 0x10, 0x00, 0x00, 0x00, 0x02, 0x00, 0x00, 0x00,
  0x1c, 0x00, 0x00, 0x00, 0x9c, 0xff, 0xff, 0xff, 0x0e, 0x00, 0x00, 0x00,
  0x61, 0x72, 0x69, 0x74, 0x68, 0x2e, 0x63, 0x6f, 0x6e, 0x73, 0x74, 0x61,
  0x6e, 0x74, 0x00, 0x00, 0x02, 0x00, 0x00, 0x00, 0x01, 0x00, 0x00, 0x00,
  0x10, 0x00, 0x00, 0x00, 0x00, 0x00, 0x16, 0x00, 0x1c, 0x00, 0x18, 0x00,
  0x00, 0x00, 0x14, 0x00, 0x10, 0x00, 0x0c, 0x00, 0x00, 0x00, 0x00, 0x00,
  0x08, 0x00, 0x07, 0x00, 0x16, 0x00, 0x00, 0x00, 0x00, 0x00, 0x00, 0x01,
  0x14, 0x00, 0x00, 0x00, 0x20, 0x00, 0x00, 0x00, 0x20, 0x00, 0x00, 0x00,
  0x01, 0x00, 0x00, 0x00, 0x3c, 0x00, 0x00, 0x00, 0x02, 0x00, 0x00, 0x00,
  0xff, 0xff, 0xff, 0xff, 0x09, 0x00, 0x00, 0x00, 0x04, 0x00, 0x04, 0x00,
  0x04, 0x00, 0x00, 0x00, 0x1e, 0x00, 0x00, 0x00, 0x73, 0x65, 0x72, 0x76,
  0x69, 0x6e, 0x67, 0x5f, 0x64, 0x65, 0x66, 0x61, 0x75, 0x6c, 0x74, 0x5f,
  0x6b, 0x65, 0x72, 0x61, 0x73, 0x5f, 0x74, 0x65, 0x6e, 0x73, 0x6f, 0x72,
  0x3a, 0x30, 0x00, 0x00, 0x02, 0x00, 0x00, 0x00, 0x01, 0x00, 0x00, 0x00,
  0x09, 0x00, 0x00, 0x00, 0x02, 0x00, 0x00, 0x00, 0x20, 0x00, 0x00, 0x00,
  0x04, 0x00, 0x00, 0x00, 0xf4, 0xff, 0xff, 0xff, 0x0e, 0x00, 0x00, 0x00,
  0x00, 0x00, 0x00, 0x0e, 0x0c, 0x00, 0x0c, 0x00, 0x0b, 0x00, 0x00, 0x00,
  0x00, 0x00, 0x04, 0x00, 0x0c, 0x00, 0x00, 0x00, 0x09, 0x00, 0x00, 0x00,
  0x00, 0x00, 0x00, 0x09
};

#endif //POSTURA_MODEL_H