#ifndef POSTURA_MODEL_H
#define POSTURA_MODEL_H

const unsigned int postura_model_len = 3896;
alignas(8) const unsigned char postura_model[] = {
  0x1c, 0x00, 0x00, 0x00, 0x54, 0x46, 0x4c, 0x33, 0x14, 0x00, 0x20, 0x00,
  0x1c, 0x00, 0x18, 0x00, 0x14, 0x00, 0x10, 0x00, 0x0c, 0x00, 0x00, 0x00,
  0x08, 0x00, 0x04, 0x00, 0x14, 0x00, 0x00, 0x00, 0x1c, 0x00, 0x00, 0x00,
  0x8c, 0x00, 0x00, 0x00, 0xe4, 0x00, 0x00, 0x00, 0x10, 0x09, 0x00, 0x00,
  0x20, 0x09, 0x00, 0x00, 0xd4, 0x0e, 0x00, 0x00, 0x03, 0x00, 0x00, 0x00,
  0x01, 0x00, 0x00, 0x00, 0x04, 0x00, 0x00, 0x00, 0xa2, 0xf6, 0xff, 0xff,
  0x0c, 0x00, 0x00, 0x00, 0x1c, 0x00, 0x00, 0x00, 0x3c, 0x00, 0x00, 0x00,
  0x0f, 0x00, 0x00, 0x00, 0x73, 0x65, 0x72, 0x76, 0x69, 0x6e, 0x67, 0x5f,
  0x64, 0x65, 0x66, 0x61, 0x75, 0x6c, 0x74, 0x00, 0x01, 0x00, 0x00, 0x00,
  0x04, 0x00, 0x00, 0x00, 0x90, 0xff, 0xff, 0xff, 0x0a, 0x00, 0x00, 0x00,
  0x04, 0x00, 0x00, 0x00, 0x08, 0x00, 0x00, 0x00, 0x6f, 0x75, 0x74, 0x70,
  0x75, 0x74, 0x5f, 0x30, 0x00, 0x00, 0x00, 0x00, 0x01, 0x00, 0x00, 0x00,
  0x04, 0x00, 0x00, 0x00, 0xb2, 0xf7, 0xff, 0xff, 0x04, 0x00, 0x00, 0x00,
  0x0f, 0x00, 0x00, 0x00, 0x6b, 0x65, 0x72, 0x61, 0x73, 0x5f, 0x74, 0x65,
  0x6e, 0x73, 0x6f, 0x72, 0x5f, 0x33, 0x30, 0x00, 0x02, 0x00, 0x00, 0x00,
  0x34, 0x00, 0x00, 0x00, 0x04, 0x00, 0x00, 0x00, 0xdc, 0xff, 0xff, 0xff,
  0x0d, 0x00, 0x00, 0x00, 0x04, 0x00, 0x00, 0x00, 0x13, 0x00, 0x00, 0x00,
  0x43, 0x4f, 0x4e, 0x56, 0x45, 0x52, 0x53, 0x49, 0x4f, 0x4e, 0x5f, 0x4d,
  0x45, 0x54, 0x41, 0x44, 0x41, 0x54, 0x41, 0x00, 0x08, 0x00, 0x0c, 0x00,
  0x08, 0x00, 0x04, 0x00, 0x08, 0x00, 0x00, 0x00, 0x0c, 0x00, 0x00, 0x00,
  0x04, 0x00, 0x00, 0x00, 0x13, 0x00, 0x00, 0x00, 0x6d, 0x69, 0x6e, 0x5f,
  0x72, 0x75, 0x6e, 0x74, 0x69, 0x6d, 0x65, 0x5f, 0x76, 0x65, 0x72, 0x73,
  0x69, 0x6f, 0x6e, 0x00, 0x0e, 0x00, 0x00, 0x00, 0x28, 0x08, 0x00, 0x00,
  0x20, 0x08, 0x00, 0x00, 0xd0, 0x07, 0x00, 0x00, 0xb8, 0x03, 0x00, 0x00,
  0xa4, 0x03, 0x00, 0x00, 0x54, 0x03, 0x00, 0x00, 0x04, 0x03, 0x00, 0x00,
  0xb4, 0x00, 0x00, 0x00, 0xac, 0x00, 0x00, 0x00, 0xa4, 0x00, 0x00, 0x00,
  0x9c, 0x00, 0x00, 0x00, 0x94, 0x00, 0x00, 0x00, 0x74, 0x00, 0x00, 0x00,
  0x04, 0x00, 0x00, 0x00, 0x66, 0xf8, 0xff, 0xff, 0x04, 0x00, 0x00, 0x00,
  0x60, 0x00, 0x00, 0x00, 0x0c, 0x00, 0x00, 0x00, 0x08, 0x00, 0x0e, 0x00,
  0x08, 0x00, 0x04, 0x00, 0x08, 0x00, 0x00, 0x00, 0x10, 0x00, 0x00, 0x00,
  0x28, 0x00, 0x00, 0x00, 0x00, 0x00, 0x06, 0x00, 0x08, 0x00, 0x04, 0x00,
  0x06, 0x00, 0x00, 0x00, 0x04, 0x00, 0x00, 0x00, 0x01, 0x00, 0x00, 0x00,
  0xea, 0x03, 0x00, 0x00, 0x0c, 0x00, 0x18, 0x00, 0x14, 0x00, 0x10, 0x00,
  0x0c, 0x00, 0x04, 0x00, 0x0c, 0x00, 0x00, 0x00, 0x9c, 0xe7, 0x1c, 0x56,
  0xf4, 0xb8, 0xc3, 0x4a, 0x02, 0x00, 0x00, 0x00, 0x02, 0x00, 0x00, 0x00,
  0x04, 0x00, 0x00, 0x00, 0x06, 0x00, 0x00, 0x00, 0x32, 0x2e, 0x31, 0x39,
  0x2e, 0x30, 0x00, 0x00, 0xd2, 0xf8, 0xff, 0xff, 0x04, 0x00, 0x00, 0x00,
  0x10, 0x00, 0x00, 0x00, 0x31, 0x2e, 0x31, 0x34, 0x2e, 0x30, 0x00, 0x00,
  0x00, 0x00, 0x00, 0x00, 0x00, 0x00, 0x00, 0x00, 0x04, 0xf3, 0xff, 0xff,
  0x08, 0xf3, 0xff, 0xff, 0x0c, 0xf3, 0xff, 0xff, 0x10, 0xf3, 0xff, 0xff,
  0xfe, 0xf8, 0xff, 0xff, 0x04, 0x00, 0x00, 0x00, 0x40, 0x02, 0x00, 0x00,
  0xf2, 0x87, 0x9e, 0xbe, 0x97, 0x23, 0x1a, 0xbc, 0xb8, 0xf8, 0x75, 0x3e,
  0x5b, 0xed, 0x94, 0xbe, 0xc3, 0x8e, 0x61, 0x3e, 0x64, 0xc6, 0x97, 0xbd,
  0x59, 0xfc, 0x89, 0x3e, 0x12, 0x52, 0x51, 0x3f, 0x1b, 0xeb, 0x1a, 0xbf,
  0x66, 0xa5, 0xa6, 0xbe, 0xd6, 0x76, 0xe3, 0x3c, 0xc6, 0x61, 0x8f, 0xbe,
  0x7a, 0xe3, 0x49, 0xbd, 0xf3, 0x8f, 0x1d, 0xbf, 0x81, 0xdf, 0x2f, 0xbf,
  0x47, 0x14, 0xa2, 0xbe, 0x09, 0x97, 0x5c, 0x3e, 0x53, 0x27, 0xf6, 0xbe,
  0x6a, 0xd7, 0x37, 0xbe, 0x5b, 0x25, 0x85, 0xbe, 0x86, 0x96, 0xb5, 0x3e,
  0x74, 0x0e, 0x3b, 0x3e, 0x06, 0x62, 0x92, 0xbe, 0x1b, 0x03, 0x4f, 0x3e,
  0xe9, 0x1e, 0xb5, 0xbc, 0x22, 0xab, 0x8f, 0xbe, 0x5e, 0x00, 0x93, 0xbe,
  0x66, 0xd8, 0x5e, 0xbe, 0xc1, 0x43, 0x18, 0x3e, 0x15, 0x13, 0xcb, 0x3e,
  0x36, 0x4b, 0x01, 0xbf, 0x3d, 0x71, 0x2a, 0xbe, 0x0a, 0xbc, 0x11, 0x3d,
  0x76, 0xef, 0xb8, 0xbf, 0xd3, 0x56, 0xf4, 0xbe, 0x50, 0x12, 0x67, 0xbf,
  0xe1, 0x3c, 0xa8, 0x3d, 0x54, 0x28, 0xc8, 0xba, 0xed, 0x0e, 0x9b, 0xbc,
  0x54, 0x89, 0x8e, 0xbf, 0x3b, 0x58, 0xba, 0xbe, 0xa5, 0x0d, 0xfe, 0x3e,
  0xf1, 0xa5, 0xad, 0x3e, 0x6f, 0x7e, 0xf2, 0x3d, 0x1c, 0x49, 0x1d, 0xbf,
  0xf5, 0x2b, 0x06, 0xbf, 0x7f, 0xef, 0xa6, 0xbd, 0xd8, 0x8b, 0xf9, 0x3d,
  0x70, 0x6c, 0xa0, 0x3c, 0x1a, 0x9b, 0xa7, 0x3e, 0x6e, 0x7d, 0x14, 0x3e,
  0xcf, 0xba, 0x1e, 0xbf, 0xb4, 0x36, 0xa9, 0x3e, 0x16, 0x3c, 0x7c, 0x3e,
  0x35, 0x93, 0x64, 0xbf, 0xf8, 0x41, 0x03, 0xbd, 0x54, 0xbc, 0xa9, 0xbe,
  0x3b, 0xe0, 0x0d, 0xbe, 0xc6, 0x12, 0x1f, 0x3b, 0x85, 0xf0, 0xe1, 0xbd,
  0x4b, 0x52, 0x83, 0xbe, 0xc2, 0xc6, 0xb8, 0x3e, 0x23, 0x27, 0x33, 0xbd,
  0x91, 0x2c, 0x84, 0x3c, 0xba, 0xca, 0xd8, 0xbb, 0x5c, 0x8b, 0x75, 0x3e,
  0x48, 0xc0, 0x65, 0x3e, 0x97, 0x32, 0x28, 0x3e, 0x3c, 0x69, 0x27, 0x3e,
  0x6d, 0x21, 0x81, 0x3d, 0x60, 0xac, 0x3b, 0x3f, 0x3b, 0x2d, 0x24, 0x3f,
  0xd1, 0x7b, 0xb1, 0xbd, 0xca, 0x3e, 0x16, 0xbf, 0xa6, 0x84, 0x0c, 0xbd,
  0xa5, 0x62, 0x6a, 0xbf, 0xce, 0x84, 0xc4, 0x3d, 0x55, 0x20, 0xd3, 0xbe,
  0xf4, 0x55, 0xdc, 0x3e, 0xdb, 0xe8, 0xba, 0x3d, 0xbf, 0x58, 0x90, 0xbf,
  0x54, 0x34, 0xe0, 0x3d, 0x8e, 0xe4, 0x48, 0x3d, 0x0e, 0xd8, 0x90, 0xba,
  0x13, 0xa0, 0x9a, 0xbf, 0x1e, 0xd2, 0xb0, 0xbe, 0xbf, 0xd5, 0x09, 0x3f,
  0xd4, 0xc9, 0x05, 0x3f, 0x5a, 0x34, 0xad, 0xbc, 0x46, 0x52, 0x45, 0xbf,
  0xfd, 0xdf, 0xa5, 0xbe, 0x3a, 0xbf, 0x83, 0xbe, 0x68, 0x22, 0x3f, 0x3e,
  0x45, 0xf3, 0xb4, 0xbe, 0x88, 0x1b, 0x3f, 0xbe, 0xdd, 0x41, 0x36, 0xbf,
  0x51, 0x47, 0x23, 0xbf, 0xee, 0xb1, 0xa2, 0x3e, 0x80, 0x82, 0x9b, 0x3e,
  0x3f, 0x35, 0xf0, 0xbc, 0x79, 0x56, 0x12, 0xbe, 0x63, 0x1e, 0x8d, 0xbe,
  0x26, 0x69, 0xd6, 0xbd, 0x85, 0xa8, 0x13, 0xbe, 0x83, 0xaa, 0x32, 0xbf,
  0xa5, 0x42, 0xb1, 0xbe, 0x59, 0x58, 0xfd, 0xbe, 0x36, 0xa2, 0xa7, 0xbe,
  0xd3, 0x17, 0x34, 0xbf, 0xd0, 0x6a, 0xaa, 0xbc, 0x79, 0x08, 0x2e, 0x3e,
  0xae, 0x05, 0xb9, 0x3d, 0x10, 0xcd, 0xbe, 0x3e, 0x00, 0xf5, 0xac, 0xbc,
  0xe3, 0x31, 0xe8, 0xbe, 0x58, 0x39, 0xa4, 0x3e, 0xe2, 0x5c, 0x46, 0x3e,
  0x76, 0x5d, 0x82, 0x3d, 0x5e, 0x98, 0x2b, 0xbe, 0x08, 0xaa, 0xaa, 0x3d,
  0x1a, 0xfd, 0xc7, 0x3d, 0x9c, 0xc7, 0x10, 0xbf, 0x87, 0xc6, 0xe3, 0xbe,
  0x9b, 0x14, 0x3c, 0x3d, 0x58, 0x68, 0x9b, 0xbd, 0x12, 0x66, 0x8b, 0x3f,
  0x00, 0xaa, 0xd0, 0x3d, 0xea, 0x2c, 0x2e, 0xbe, 0x02, 0xd8, 0x63, 0x3e,
  0xa0, 0x6c, 0xf4, 0x3d, 0x5f, 0x3a, 0x97, 0xbd, 0x66, 0x80, 0x76, 0xbf,
  0x1a, 0xde, 0x27, 0xbf, 0x44, 0xeb, 0x1b, 0x3f, 0x17, 0x83, 0x15, 0x3f,
  0x76, 0xa2, 0xa1, 0xbe, 0xd2, 0x37, 0x0e, 0x3d, 0x45, 0x82, 0x1e, 0xbd,
  0xed, 0x03, 0x0f, 0x3d, 0xaf, 0x15, 0x2c, 0xbf, 0xf7, 0x23, 0xf2, 0xbe,
  0x2b, 0x53, 0xd1, 0xbe, 0xd4, 0x12, 0x21, 0xbe, 0xe6, 0x62, 0xab, 0xbd,
  0x4a, 0xfb, 0xff, 0xff, 0x04, 0x00, 0x00, 0x00, 0x40, 0x00, 0x00, 0x00,
  0xd5, 0xd7, 0x38, 0xbf, 0x61, 0x6d, 0x04, 0x3f, 0xb2, 0xd7, 0x92, 0x3e,
  0xf7, 0xf9, 0x1a, 0xbd, 0xa7, 0x49, 0x2e, 0xbe, 0xb8, 0x83, 0xf7, 0xbe,
  0xb5, 0xb9, 0xa2, 0xbe, 0x14, 0xb0, 0xdf, 0xbe, 0x42, 0xd5, 0x0c, 0xbf,
  0x0d, 0x40, 0xd0, 0xbe, 0x5b, 0x20, 0x78, 0x3e, 0xe6, 0x3a, 0x0e, 0x3f,
  0xb3, 0x0c, 0x1e, 0xbf, 0xa8, 0x39, 0xe1, 0x3e, 0x15, 0x5b, 0x8b, 0x3e,
  0x66, 0x99, 0xdf, 0x3e, 0x96, 0xfb, 0xff, 0xff, 0x04, 0x00, 0x00, 0x00,
  0x40, 0x00, 0x00, 0x00, 0xc5, 0xbe, 0xc1, 0x3e, 0x63, 0x64, 0x82, 0x3d,
  0xd7, 0xcd, 0xb8, 0x3e, 0x57, 0x81, 0xf8, 0x3d, 0x74, 0x51, 0xf7, 0x3d,
  0xe8, 0xc2, 0xe9, 0x3e, 0xae, 0x53, 0x7c, 0x3c, 0x3c, 0xbd, 0xab, 0x3d,
  0x3d, 0x56, 0xc7, 0x3e, 0xf4, 0xa2, 0x0a, 0x3e, 0xa6, 0xb0, 0x17, 0x3d,
  0xd9, 0x64, 0xe1, 0x3e, 0x39, 0x03, 0xcd, 0x3e, 0xc6, 0xfe, 0xbc, 0x3e,
  0x42, 0x33, 0x99, 0x3e, 0xe4, 0x42, 0xc4, 0x3d, 0xe2, 0xfb, 0xff, 0xff,
  0x04, 0x00, 0x00, 0x00, 0x04, 0x00, 0x00, 0x00, 0x5c, 0x22, 0x96, 0x3e,
  0xf2, 0xfb, 0xff, 0xff, 0x04, 0x00, 0x00, 0x00, 0x00, 0x04, 0x00, 0x00,
  0x4a, 0xbb, 0x88, 0xbf, 0x39, 0x32, 0xc1, 0x3e, 0x67, 0x13, 0xc8, 0x3c,
  0x05, 0xe3, 0xba, 0x3e, 0x8f, 0x7d, 0xc4, 0xbe, 0x57, 0x3d, 0x01, 0xbf,
  0xc4, 0x1d, 0x37, 0xbe, 0xd2, 0x1d, 0x08, 0xbe, 0x51, 0x0e, 0x0e, 0xbf,
  0x58, 0xd0, 0x8c, 0xbf, 0x3a, 0xa3, 0x39, 0x3f, 0xf5, 0x47, 0x0b, 0x3f,
  0xb1, 0xe3, 0x0f, 0xbf, 0x85, 0xe5, 0xab, 0x3e, 0xc8, 0xac, 0x80, 0x3e,
  0x59, 0xf1, 0x01, 0x3f, 0x3d, 0x73, 0xd9, 0x3e, 0x09, 0x03, 0xf5, 0xbe,
  0x4d, 0x9d, 0xca, 0x3d, 0x24, 0xbf, 0x16, 0xbf, 0xac, 0x11, 0x31, 0x3f,
  0x5b, 0x6b, 0x5a, 0x3e, 0xb0, 0x31, 0xa3, 0x3e, 0x44, 0xc0, 0xd6, 0x3d,
  0xa0, 0x06, 0xb0, 0x3e, 0xdf, 0x5b, 0x7c, 0x3f, 0xf2, 0x4c, 0xa5, 0xbf,
  0x72, 0x04, 0xdf, 0xbd, 0xd9, 0x2a, 0xa8, 0x3d, 0xec, 0x6f, 0x2d, 0xbd,
  0x7b, 0xf8, 0x31, 0xbf, 0x72, 0x38, 0x96, 0xbe, 0xdd, 0xa4, 0x14, 0xbf,
  0xb7, 0x06, 0x46, 0x3f, 0xda, 0x5c, 0x47, 0x3d, 0x89, 0x0f, 0xf4, 0x3e,
  0x06, 0x52, 0x77, 0xbf, 0x77, 0xfd, 0xa6, 0xbe, 0x41, 0x87, 0xb6, 0xbe,
  0xdf, 0x7a, 0x1d, 0xbe, 0x7d, 0x7a, 0x56, 0xbf, 0xf6, 0x40, 0xae, 0xbf,
  0x87, 0x0c, 0xa8, 0x3e, 0x65, 0xa3, 0xf2, 0x3e, 0x0b, 0xb2, 0xa5, 0xbe,
  0x4d, 0x44, 0x1f, 0x3e, 0x31, 0x2f, 0xd7, 0xbd, 0x9d, 0xfb, 0x14, 0x3f,
  0x10, 0xc6, 0x27, 0x3f, 0xc5, 0xfe, 0xcf, 0xbe, 0x96, 0x97, 0xaf, 0x3e,
  0xc0, 0xbb, 0x77, 0xbe, 0x4d, 0x6e, 0x0c, 0x3f, 0xb5, 0x24, 0x2c, 0x3e,
  0x21, 0x8e, 0xcc, 0x3c, 0x32, 0xfa, 0x8a, 0xbd, 0xa0, 0xaf, 0x76, 0x3f,
  0x08, 0xc5, 0x93, 0x3f, 0x07, 0x60, 0x41, 0xbf, 0x6a, 0x85, 0x49, 0xbe,
  0x5b, 0x35, 0x31, 0x3e, 0x15, 0x6d, 0x6d, 0xbf, 0x1b, 0xbb, 0x33, 0xbf,
  0x8c, 0xf8, 0xbb, 0xbe, 0x2e, 0xb0, 0x1d, 0x3d, 0x79, 0x2c, 0xcf, 0xbe,
  0x57, 0x2a, 0xd2, 0x3d, 0xff, 0x51, 0x12, 0xbf, 0xc9, 0x26, 0x1c, 0x3f,
  0x81, 0xf8, 0xce, 0xbc, 0x3c, 0xdf, 0xec, 0x3e, 0xcf, 0x36, 0xde, 0x3b,
  0xbc, 0x8e, 0x3b, 0x3f, 0xdd, 0x44, 0xf8, 0x3e, 0x10, 0x31, 0x8c, 0xbf,
  0x38, 0x1b, 0x95, 0x3d, 0x28, 0xcc, 0x18, 0x3f, 0x06, 0x3b, 0x8b, 0xbf,
  0x01, 0xde, 0x49, 0xbf, 0x20, 0x2d, 0xb5, 0xbe, 0x68, 0xbf, 0xb9, 0xbf,
  0x7c, 0xcd, 0x2d, 0x3f, 0x52, 0x1b, 0x93, 0xbe, 0xc6, 0x71, 0x2f, 0xbe,
  0x6a, 0x32, 0x66, 0xbf, 0xd1, 0x18, 0x86, 0xbf, 0xb5, 0x5a, 0xe1, 0xbe,
  0x58, 0x67, 0x70, 0xbe, 0x5c, 0x66, 0x79, 0xbf, 0xed, 0x03, 0x6b, 0xbf,
  0xd9, 0x4e, 0x0b, 0x3f, 0x69, 0x65, 0x55, 0x3e, 0x48, 0xf8, 0x7d, 0xbf,
  0xc2, 0xef, 0x9a, 0xbe, 0xb8, 0x6b, 0x91, 0xbe, 0x0c, 0x32, 0xab, 0x3e,
  0x11, 0x13, 0xbc, 0xbe, 0x4f, 0x3a, 0xd3, 0xbe, 0x9f, 0x2c, 0xeb, 0x3c,
  0x1e, 0x22, 0xb1, 0xbc, 0xdc, 0x7f, 0x0c, 0x3e, 0x9d, 0x49, 0xf4, 0x3e,
  0x65, 0x4b, 0xad, 0x3e, 0x70, 0x05, 0x12, 0x3e, 0x43, 0x09, 0x5b, 0x3f,
  0xf2, 0x9f, 0xa5, 0x3f, 0x85, 0x3f, 0x94, 0xbf, 0x2d, 0xae, 0xc6, 0x3e,
  0x7d, 0xeb, 0xf7, 0xbe, 0xb8, 0xc4, 0xa8, 0xbd, 0xe3, 0xe0, 0x00, 0xbf,
  0x94, 0x54, 0x19, 0xbf, 0x8a, 0x27, 0x8f, 0x3e, 0x26, 0x89, 0x83, 0xbe,
  0x82, 0x2e, 0xc6, 0x3c, 0xc6, 0x05, 0x8b, 0x3d, 0x1c, 0x4d, 0x49, 0x3f,
  0xf8, 0x2e, 0xd8, 0x3d, 0x3a, 0xad, 0xdb, 0x3c, 0x61, 0x58, 0x10, 0x3e,
  0xe1, 0xf1, 0x57, 0x3f, 0x49, 0x85, 0x6d, 0x3f, 0x92, 0x4d, 0x69, 0xbf,
  0x8d, 0x26, 0x5c, 0x3e, 0xd5, 0x2c, 0x0a, 0x3f, 0x04, 0xce, 0xc8, 0xbe,
  0xdf, 0x8d, 0x0c, 0xbf, 0x7b, 0x23, 0x42, 0xbf, 0xb9, 0xef, 0x94, 0xbf,
  0x13, 0x29, 0x22, 0x3e, 0x3d, 0x5b, 0xa1, 0xbd, 0x14, 0x67, 0xb6, 0xbe,
  0x3f, 0xeb, 0x27, 0xbf, 0x0d, 0xd9, 0x8d, 0xbf, 0x43, 0x63, 0x2d, 0x3d,
  0x61, 0x7b, 0xd6, 0xbe, 0x81, 0xa1, 0x58, 0xbf, 0x67, 0x03, 0x5e, 0xbf,
  0xf2, 0xbc, 0x9a, 0x3e, 0x1e, 0x8e, 0x58, 0x3f, 0x78, 0x79, 0x27, 0xbf,
  0xa1, 0xb7, 0xb9, 0xbc, 0x25, 0xfe, 0x74, 0xbe, 0x3d, 0x94, 0x37, 0x3e,
  0xaa, 0xeb, 0xe2, 0x3e, 0xf7, 0x5c, 0xf5, 0xbe, 0x28, 0x0b, 0x93, 0x3d,
  0xac, 0xec, 0xcb, 0xbd, 0x7c, 0x92, 0x54, 0x3f, 0x9f, 0x14, 0xd2, 0xba,
  0x2a, 0x7c, 0x66, 0x3c, 0xf2, 0x35, 0x93, 0xbe, 0x38, 0x0c, 0x07, 0x3f,
  0xa7, 0x9b, 0x03, 0x3f, 0xed, 0x91, 0x9e, 0xbf, 0x91, 0x82, 0xba, 0xbe,
  0xd9, 0x03, 0xfb, 0x3d, 0xa5, 0x78, 0xbf, 0xbe, 0xdb, 0x25, 0x3c, 0xbf,
  0x4d, 0xbf, 0xdb, 0xbe, 0x3f, 0x51, 0x06, 0x3e, 0x48, 0xd5, 0xe7, 0xbe,
  0x39, 0x45, 0xd1, 0x3d, 0x16, 0xbc, 0x06, 0xbf, 0xd0, 0xd0, 0xe4, 0x3e,
  0x6c, 0x54, 0xa4, 0x3e, 0x7a, 0x8f, 0xd2, 0xbd, 0xe6, 0x31, 0x66, 0x3c,
  0x32, 0x8f, 0xc6, 0xbe, 0xa2, 0x98, 0x7d, 0x3f, 0x56, 0x31, 0x8d, 0xbe,
  0xc6, 0xd6, 0x63, 0xbe, 0x5c, 0x1a, 0x1a, 0x3e, 0xc9, 0x7d, 0x8c, 0xbd,
  0x3d, 0xbc, 0x85, 0xbc, 0x5f, 0xd4, 0xbf, 0xbe, 0x94, 0x90, 0x7f, 0xbf,
  0x94, 0x47, 0x0a, 0x3f, 0xd2, 0xef, 0x01, 0xbf, 0x75, 0xad, 0x08, 0xbf,
  0x06, 0x10, 0x11, 0xbf, 0xb0, 0x53, 0x59, 0xbf, 0xf0, 0x4d, 0xa3, 0xbe,
  0xf8, 0xe3, 0x3e, 0xbe, 0xa6, 0x5c, 0xaa, 0xbe, 0x2b, 0xf0, 0x89, 0xbf,
  0x7a, 0xa0, 0x9d, 0x3f, 0xbd, 0x56, 0x18, 0x3f, 0xba, 0xe3, 0x42, 0xbf,
  0x24, 0x90, 0x33, 0x3a, 0x26, 0x3f, 0xd5, 0x3d, 0xff, 0x29, 0x80, 0x3c,
  0xda, 0x72, 0x8b, 0xbf, 0x08, 0x30, 0xd9, 0x3e, 0xdd, 0x36, 0x5c, 0xbe,
  0xea, 0xfc, 0x43, 0x3e, 0xc3, 0x65, 0xad, 0xbe, 0x68, 0xb5, 0x8a, 0xbf,
  0x75, 0xa9, 0x29, 0x3e, 0xee, 0x7a, 0x29, 0xbf, 0x64, 0xf0, 0x82, 0xbf,
  0x42, 0xbb, 0x1b, 0xbf, 0x93, 0xc6, 0x3b, 0x3d, 0x71, 0x55, 0xb5, 0x3e,
  0xab, 0x0f, 0x65, 0xbf, 0x9e, 0x5f, 0xca, 0xbe, 0xe5, 0x4c, 0x51, 0xbc,
  0xd5, 0x45, 0xda, 0x3e, 0x63, 0x55, 0x8f, 0xbf, 0x8a, 0x00, 0x48, 0x3f,
  0xf7, 0x27, 0x81, 0x3d, 0xf3, 0x69, 0x27, 0x3e, 0x58, 0x82, 0x57, 0xbf,
  0xc8, 0x7c, 0x6e, 0xbf, 0xe0, 0x07, 0xd9, 0xbe, 0x77, 0x70, 0xb0, 0xbd,
  0x89, 0xd2, 0x28, 0xbf, 0x78, 0x8f, 0x91, 0xbf, 0x35, 0x5b, 0x7a, 0x3f,
  0x62, 0x6b, 0x27, 0x3f, 0x92, 0x97, 0x52, 0xbf, 0x3d, 0xaf, 0xb7, 0x3e,
  0x82, 0xdd, 0xd5, 0xbe, 0xfa, 0x84, 0xa3, 0x3e, 0x6e, 0x03, 0x25, 0xbf,
  0x43, 0x5d, 0x2e, 0x3f, 0x33, 0x96, 0x83, 0x3e, 0x71, 0x5e, 0xe1, 0x3e,
  0x41, 0xcd, 0xc3, 0xbe, 0x51, 0xdb, 0x9d, 0xbe, 0x41, 0xca, 0xf9, 0xbc,
  0x14, 0x16, 0xdd, 0xbe, 0x92, 0x1f, 0x8b, 0xbf, 0x66, 0xfd, 0x08, 0xbf,
  0x10, 0xb5, 0x5b, 0x3f, 0x1f, 0x3d, 0x2f, 0x3f, 0x65, 0x9b, 0xa3, 0xbe,
  0xa5, 0xdc, 0xe6, 0x3d, 0xcf, 0xa6, 0xda, 0xbd, 0x58, 0x49, 0xed, 0x3e,
  0xc5, 0xc6, 0x14, 0x3f, 0xbf, 0xdd, 0x11, 0xbe, 0x2d, 0x74, 0xb8, 0x3e,
  0xb1, 0x64, 0x87, 0xbe, 0xcc, 0x86, 0x14, 0x3f, 0x60, 0x52, 0xa4, 0xbc,
  0x8d, 0x05, 0xcc, 0x3d, 0x69, 0x52, 0x8b, 0x3d, 0x9e, 0x0e, 0xf9, 0x3e,
  0xb9, 0xcd, 0x3b, 0x3f, 0xcd, 0x01, 0xdc, 0xbe, 0x8a, 0x1f, 0x6f, 0xbe,
  0x50, 0xb2, 0x1f, 0x3e, 0x7e, 0xd5, 0xfa, 0xbe, 0x96, 0xe1, 0x93, 0xbe,
  0xd0, 0x1a, 0x17, 0xbf, 0x00, 0x00, 0x06, 0x00, 0x08, 0x00, 0x04, 0x00,
  0x06, 0x00, 0x00, 0x00, 0x04, 0x00, 0x00, 0x00, 0x40, 0x00, 0x00, 0x00,
  0xb5, 0xf5, 0x0a, 0x3f, 0x67, 0x6b, 0x81, 0xbf, 0x1d, 0x56, 0x59, 0x3f,
  0xea, 0x39, 0x77, 0xbf, 0x6a, 0xdf, 0x66, 0xbf, 0xb2, 0x02, 0x9c, 0x3f,
  0x6c, 0xe4, 0xc5, 0xbf, 0x87, 0xe8, 0x51, 0xbf, 0xa4, 0x48, 0x4f, 0x3f,
  0xf0, 0xc3, 0xae, 0xbf, 0xd5, 0x48, 0x7d, 0xbf, 0x3c, 0xb6, 0x45, 0x3f,
  0x53, 0xce, 0x91, 0x3f, 0xb6, 0x9a, 0x2f, 0x3f, 0xf9, 0xe9, 0x2b, 0x3f,
  0xcd, 0x2e, 0x69, 0xbf, 0x68, 0xfa, 0xff, 0xff, 0x6c, 0xfa, 0xff, 0xff,
  0x0f, 0x00, 0x00, 0x00, 0x4d, 0x4c, 0x49, 0x52, 0x20, 0x43, 0x6f, 0x6e,
  0x76, 0x65, 0x72, 0x74, 0x65, 0x64, 0x2e, 0x00, 0x01, 0x00, 0x00, 0x00,
  0x14, 0x00, 0x00, 0x00, 0x00, 0x00, 0x0e, 0x00, 0x18, 0x00, 0x14, 0x00,
  0x10, 0x00, 0x0c, 0x00, 0x08, 0x00, 0x04, 0x00, 0x0e, 0x00, 0x00, 0x00,
  0x14, 0x00, 0x00, 0x00, 0x1c, 0x00, 0x00, 0x00, 0x18, 0x01, 0x00, 0x00,
  0x1c, 0x01, 0x00, 0x00, 0x20, 0x01, 0x00, 0x00, 0x04, 0x00, 0x00, 0x00,
  0x6d, 0x61, 0x69, 0x6e, 0x00, 0x00, 0x00, 0x00, 0x04, 0x00, 0x00, 0x00,
  0xc0, 0x00, 0x00, 0x00, 0x78, 0x00, 0x00, 0x00, 0x34, 0x00, 0x00, 0x00,
  0x10, 0x00, 0x00, 0x00, 0x00, 0x00, 0x0a, 0x00, 0x10, 0x00, 0x0c, 0x00,
  0x08, 0x00, 0x04, 0x00, 0x0a, 0x00, 0x00, 0x00, 0x0c, 0x00, 0x00, 0x00,
  0x10, 0x00, 0x00, 0x00, 0x01, 0x00, 0x00, 0x00, 0x01, 0x00, 0x00, 0x00,
  0x0a, 0x00, 0x00, 0x00, 0x01, 0x00, 0x00, 0x00, 0x09, 0x00, 0x00, 0x00,
  0xce, 0xff, 0xff, 0xff, 0x10, 0x00, 0x00, 0x00, 0x00, 0x00, 0x00, 0x08,
  0x0c, 0x00, 0x00, 0x00, 0x10, 0x00, 0x00, 0x00, 0x14, 0xfb, 0xff, 0xff,
  0x01, 0x00, 0x00, 0x00, 0x09, 0x00, 0x00, 0x00, 0x03, 0x00, 0x00, 0x00,
  0x08, 0x00, 0x00, 0x00, 0x01, 0x00, 0x00, 0x00, 0x03, 0x00, 0x00, 0x00,
  0x00, 0x00, 0x0e, 0x00, 0x14, 0x00, 0x00, 0x00, 0x10, 0x00, 0x0c, 0x00,
  0x0b, 0x00, 0x04, 0x00, 0x0e, 0x00, 0x00, 0x00, 0x10, 0x00, 0x00, 0x00,
  0x00, 0x00, 0x00, 0x08, 0x10, 0x00, 0x00, 0x00, 0x14, 0x00, 0x00, 0x00,
  0xba, 0xff, 0xff, 0xff, 0x00, 0x00, 0x00, 0x01, 0x01, 0x00, 0x00, 0x00,
  0x08, 0x00, 0x00, 0x00, 0x03, 0x00, 0x00, 0x00, 0x07, 0x00, 0x00, 0x00,
  0x02, 0x00, 0x00, 0x00, 0x04, 0x00, 0x00, 0x00, 0x00, 0x00, 0x0e, 0x00,
  0x16, 0x00, 0x00, 0x00, 0x10, 0x00, 0x0c, 0x00, 0x0b, 0x00, 0x04, 0x00,
  0x0e, 0x00, 0x00, 0x00, 0x18, 0x00, 0x00, 0x00, 0x00, 0x00, 0x00, 0x08,
  0x18, 0x00, 0x00, 0x00, 0x1c, 0x00, 0x00, 0x00, 0x00, 0x00, 0x06, 0x00,
  0x08, 0x00, 0x07, 0x00, 0x06, 0x00, 0x00, 0x00, 0x00, 0x00, 0x00, 0x01,
  0x01, 0x00, 0x00, 0x00, 0x07, 0x00, 0x00, 0x00, 0x03, 0x00, 0x00, 0x00,
  0x00, 0x00, 0x00, 0x00, 0x06, 0x00, 0x00, 0x00, 0x05, 0x00, 0x00, 0x00,
  0x01, 0x00, 0x00, 0x00, 0x0a, 0x00, 0x00, 0x00, 0x01, 0x00, 0x00, 0x00,
  0x00, 0x00, 0x00, 0x00, 0x0b, 0x00, 0x00, 0x00, 0x04, 0x04, 0x00, 0x00,
  0xac, 0x03, 0x00, 0x00, 0x54, 0x03, 0x00, 0x00, 0x18, 0x03, 0x00, 0x00,
  0xdc, 0x02, 0x00, 0x00, 0x7c, 0x02, 0x00, 0x00, 0x28, 0x02, 0x00, 0x00,
  0x84, 0x01, 0x00, 0x00, 0xe0, 0x00, 0x00, 0x00, 0x60, 0x00, 0x00, 0x00,
  0x04, 0x00, 0x00, 0x00, 0x3e, 0xfc, 0xff, 0xff, 0x00, 0x00, 0x00, 0x01,
  0x14, 0x00, 0x00, 0x00, 0x1c, 0x00, 0x00, 0x00, 0x1c, 0x00, 0x00, 0x00,
  0x0b, 0x00, 0x00, 0x00, 0x34, 0x00, 0x00, 0x00, 0x02, 0x00, 0x00, 0x00,
  0xff, 0xff, 0xff, 0xff, 0x01, 0x00, 0x00, 0x00, 0x28, 0xfc, 0xff, 0xff,
  0x1b, 0x00, 0x00, 0x00, 0x53, 0x74, 0x61, 0x74, 0x65, 0x66, 0x75, 0x6c,
  0x50, 0x61, 0x72, 0x74, 0x69, 0x74, 0x69, 0x6f, 0x6e, 0x65, 0x64, 0x43,
  0x61, 0x6c, 0x6c, 0x5f, 0x31, 0x3a, 0x30, 0x00, 0x02, 0x00, 0x00, 0x00,
  0x01, 0x00, 0x00, 0x00, 0x01, 0x00, 0x00, 0x00, 0x96, 0xfc, 0xff, 0xff,
  0x00, 0x00, 0x00, 0x01, 0x14, 0x00, 0x00, 0x00, 0x1c, 0x00, 0x00, 0x00,
  0x1c, 0x00, 0x00, 0x00, 0x0a, 0x00, 0x00, 0x00, 0x58, 0x00, 0x00, 0x00,
  0x02, 0x00, 0x00, 0x00, 0xff, 0xff, 0xff, 0xff, 0x01, 0x00, 0x00, 0x00,
  0x80, 0xfc, 0xff, 0xff, 0x3e, 0x00, 0x00, 0x00, 0x73, 0x65, 0x71, 0x75,
  0x65, 0x6e, 0x74, 0x69, 0x61, 0x6c, 0x5f, 0x35, 0x5f, 0x31, 0x2f, 0x64,
  0x65, 0x6e, 0x73, 0x65, 0x5f, 0x31, 0x37, 0x5f, 0x31, 0x2f, 0x4d, 0x61,
  0x74, 0x4d, 0x75, 0x6c, 0x3b, 0x73, 0x65, 0x71, 0x75, 0x65, 0x6e, 0x74,
  0x69, 0x61, 0x6c, 0x5f, 0x35, 0x5f, 0x31, 0x2f, 0x64, 0x65, 0x6e, 0x73,
  0x65, 0x5f, 0x31, 0x37, 0x5f, 0x31, 0x2f, 0x41, 0x64, 0x64, 0x00, 0x00,
  0x02, 0x00, 0x00, 0x00, 0x01, 0x00, 0x00, 0x00, 0x01, 0x00, 0x00, 0x00,
  0x12, 0xfd, 0xff, 0xff, 0x00, 0x00, 0x00, 0x01, 0x14, 0x00, 0x00, 0x00,
  0x1c, 0x00, 0x00, 0x00, 0x1c, 0x00, 0x00, 0x00, 0x09, 0x00, 0x00, 0x00,
  0x7c, 0x00, 0x00, 0x00, 0x02, 0x00, 0x00, 0x00, 0xff, 0xff, 0xff, 0xff,
  0x10, 0x00, 0x00, 0x00, 0xfc, 0xfc, 0xff, 0xff, 0x61, 0x00, 0x00, 0x00,
  0x73, 0x65, 0x71, 0x75, 0x65, 0x6e, 0x74, 0x69, 0x61, 0x6c, 0x5f, 0x35,
  0x5f, 0x31, 0x2f, 0x64, 0x65, 0x6e, 0x73, 0x65, 0x5f, 0x31, 0x36, 0x5f,
  0x31, 0x2f, 0x4d, 0x61, 0x74, 0x4d, 0x75, 0x6c, 0x3b, 0x73, 0x65, 0x71,
  0x75, 0x65, 0x6e, 0x74, 0x69, 0x61, 0x6c, 0x5f, 0x35, 0x5f, 0x31, 0x2f,
  0x64, 0x65, 0x6e, 0x73, 0x65, 0x5f, 0x31, 0x36, 0x5f, 0x31, 0x2f, 0x52,
  0x65, 0x6c, 0x75, 0x3b, 0x73, 0x65, 0x71, 0x75, 0x65, 0x6e, 0x74, 0x69,
  0x61, 0x6c, 0x5f, 0x35, 0x5f, 0x31, 0x2f, 0x64, 0x65, 0x6e, 0x73, 0x65,
  0x5f, 0x31, 0x36, 0x5f, 0x31, 0x2f, 0x42, 0x69, 0x61, 0x73, 0x41, 0x64,
  0x64, 0x00, 0x00, 0x00, 0x02, 0x00, 0x00, 0x00, 0x01, 0x00, 0x00, 0x00,
  0x10, 0x00, 0x00, 0x00, 0xb2, 0xfd, 0xff, 0xff, 0x00, 0x00, 0x00, 0x01,
  0x14, 0x00, 0x00, 0x00, 0x1c, 0x00, 0x00, 0x00, 0x1c, 0x00, 0x00, 0x00,
  0x08, 0x00, 0x00, 0x00, 0x7c, 0x00, 0x00, 0x00, 0x02, 0x00, 0x00, 0x00,
  0xff, 0xff, 0xff, 0xff, 0x10, 0x00, 0x00, 0x00, 0x9c, 0xfd, 0xff, 0xff,
  0x61, 0x00, 0x00, 0x00, 0x73, 0x65, 0x71, 0x75, 0x65, 0x6e, 0x74, 0x69,
  0x61, 0x6c, 0x5f, 0x35, 0x5f, 0x31, 0x2f, 0x64, 0x65, 0x6e, 0x73, 0x65,
  0x5f, 0x31, 0x35, 0x5f, 0x31, 0x2f, 0x4d, 0x61, 0x74, 0x4d, 0x75, 0x6c,
  0x3b, 0x73, 0x65, 0x71, 0x75, 0x65, 0x6e, 0x74, 0x69, 0x61, 0x6c, 0x5f,
  0x35, 0x5f, 0x31, 0x2f, 0x64, 0x65, 0x6e, 0x73, 0x65, 0x5f, 0x31, 0x35,
  0x5f, 0x31, 0x2f, 0x52, 0x65, 0x6c, 0x75, 0x3b, 0x73, 0x65, 0x71, 0x75,
  0x65, 0x6e, 0x74, 0x69, 0x61, 0x6c, 0x5f, 0x35, 0x5f, 0x31, 0x2f, 0x64,
  0x65, 0x6e, 0x73, 0x65, 0x5f, 0x31, 0x35, 0x5f, 0x31, 0x2f, 0x42, 0x69,
  0x61, 0x73, 0x41, 0x64, 0x64, 0x00, 0x00, 0x00, 0x02, 0x00, 0x00, 0x00,
  0x01, 0x00, 0x00, 0x00, 0x10, 0x00, 0x00, 0x00, 0xa6, 0xfe, 0xff, 0xff,
  0x00, 0x00, 0x00, 0x01, 0x10, 0x00, 0x00, 0x00, 0x10, 0x00, 0x00, 0x00,
  0x07, 0x00, 0x00, 0x00, 0x30, 0x00, 0x00, 0x00, 0x2c, 0xfe, 0xff, 0xff,
  0x20, 0x00, 0x00, 0x00, 0x73, 0x65, 0x71, 0x75, 0x65, 0x6e, 0x74, 0x69,
  0x61, 0x6c, 0x5f, 0x35, 0x5f, 0x31, 0x2f, 0x64, 0x65, 0x6e, 0x73, 0x65,
  0x5f, 0x31, 0x35, 0x5f, 0x31, 0x2f, 0x4d, 0x61, 0x74, 0x4d, 0x75, 0x6c,
  0x00, 0x00, 0x00, 0x00, 0x02, 0x00, 0x00, 0x00, 0x10, 0x00, 0x00, 0x00,
  0x09, 0x00, 0x00, 0x00, 0xf6, 0xfe, 0xff, 0xff, 0x00, 0x00, 0x00, 0x01,
  0x10, 0x00, 0x00, 0x00, 0x10, 0x00, 0x00, 0x00, 0x06, 0x00, 0x00, 0x00,
  0x40, 0x00, 0x00, 0x00, 0x7c, 0xfe, 0xff, 0xff, 0x30, 0x00, 0x00, 0x00,
  0x73, 0x65, 0x71, 0x75, 0x65, 0x6e, 0x74, 0x69, 0x61, 0x6c, 0x5f, 0x35,
  0x5f, 0x31, 0x2f, 0x64, 0x65, 0x6e, 0x73, 0x65, 0x5f, 0x31, 0x35, 0x5f,
  0x31, 0x2f, 0x42, 0x69, 0x61, 0x73, 0x41, 0x64, 0x64, 0x2f, 0x52, 0x65,
  0x61, 0x64, 0x56, 0x61, 0x72, 0x69, 0x61, 0x62, 0x6c, 0x65, 0x4f, 0x70,
  0x00, 0x00, 0x00, 0x00, 0x01, 0x00, 0x00, 0x00, 0x10, 0x00, 0x00, 0x00,
  0x52, 0xff, 0xff, 0xff, 0x00, 0x00, 0x00, 0x01, 0x10, 0x00, 0x00, 0x00,
  0x10, 0x00, 0x00, 0x00, 0x05, 0x00, 0x00, 0x00, 0x1c, 0x00, 0x00, 0x00,
  0xd8, 0xfe, 0xff, 0xff, 0x0f, 0x00, 0x00, 0x00, 0x61, 0x72, 0x69, 0x74,
  0x68, 0x2e, 0x63, 0x6f, 0x6e, 0x73, 0x74, 0x61, 0x6e, 0x74, 0x33, 0x00,
  0x01, 0x00, 0x00, 0x00, 0x10, 0x00, 0x00, 0x00, 0x8a, 0xff, 0xff, 0xff,
  0x00, 0x00, 0x00, 0x01, 0x10, 0x00, 0x00, 0x00, 0x10, 0x00, 0x00, 0x00,
  0x04, 0x00, 0x00, 0x00, 0x1c, 0x00, 0x00, 0x00, 0x10, 0xff, 0xff, 0xff,
  0x0f, 0x00, 0x00, 0x00, 0x61, 0x72, 0x69, 0x74, 0x68, 0x2e, 0x63, 0x6f,
  0x6e, 0x73, 0x74, 0x61, 0x6e, 0x74, 0x32, 0x00, 0x01, 0x00, 0x00, 0x00,
  0x01, 0x00, 0x00, 0x00, 0xc2, 0xff, 0xff, 0xff, 0x00, 0x00, 0x00, 0x01,
  0x10, 0x00, 0x00, 0x00, 0x10, 0x00, 0x00, 0x00, 0x03, 0x00, 0x00, 0x00,
  0x1c, 0x00, 0x00, 0x00, 0x48, 0xff, 0xff, 0xff, 0x0f, 0x00, 0x00, 0x00,
  0x61, 0x72, 0x69, 0x74, 0x68, 0x2e, 0x63, 0x6f, 0x6e, 0x73, 0x74, 0x61,
  0x6e, 0x74, 0x31, 0x00, 0x02, 0x00, 0x00, 0x00, 0x10, 0x00, 0x00, 0x00,
  0x10, 0x00, 0x00, 0x00, 0x00, 0x00, 0x16, 0x00, 0x18, 0x00, 0x14, 0x00,
  0x00, 0x00, 0x10, 0x00, 0x0c, 0x00, 0x08, 0x00, 0x00, 0x00, 0x00, 0x00,
  0x00, 0x00, 0x07, 0x00, 0x16, 0x00, 0x00, 0x00, 0x00, 0x00, 0x00, 0x01,
  0x10, 0x00, 0x00, 0x00, 0x10, 0x00, 0x00, 0x00, 0x02, 0x00, 0x00, 0x00,
  0x1c, 0x00, 0x00, 0x00, 0x9c, 0xff, 0xff, 0xff, 0x0e, 0x00, 0x00, 0x00,
  0x61, 0x72, 0x69, 0x74, 0x68, 0x2e, 0x63, 0x6f, 0x6e, 0x73, 0x74, 0x61,
  0x6e, 0x74, 0x00, 0x00, 0x02, 0x00, 0x00, 0x00, 0x01, 0x00, 0x00, 0x00,
  0x10, 0x00, 0x00, 0x00, 0x00, 0x00, 0x16, 0x00, 0x1c, 0x00, 0x18, 0x00,
  0x00, 0x00, 0x14, 0x00, 0x10, 0x00, 0x0c, 0x00, 0x00, 0x00, 0x00, 0x00,
  0x08, 0x00, 0x07, 0x00, 0x16, 0x00, 0x00, 0x00, 0x00, 0x00, 0x00, 0x01,
  0x14, 0x00, 0x00, 0x00, 0x20, 0x00, 0x00, 0x00, 0x20, 0x00, 0x00, 0x00,
  0x01, 0x00, 0x00, 0x00, 0x40, 0x00, 0x00, 0x00, 0x02, 0x00, 0x00, 0x00,
  0xff, 0xff, 0xff, 0xff, 0x09, 0x00, 0x00, 0x00, 0x04, 0x00, 0x04, 0x00,
  0x04, 0x00, 0x00, 0x00, 0x21, 0x00, 0x00, 0x00, 0x73, 0x65, 0x72, 0x76,
  0x69, 0x6e, 0x67, 0x5f, 0x64, 0x65, 0x66, 0x61, 0x75, 0x6c, 0x74, 0x5f,
  0x6b, 0x65, 0x72, 0x61, 0x73, 0x5f, 0x74, 0x65, 0x6e, 0x73, 0x6f, 0x72,
  0x5f, 0x33, 0x30, 0x3a, 0x30, 0x00, 0x00, 0x00, 0x02, 0x00, 0x00, 0x00,
  0x01, 0x00, 0x00, 0x00, 0x09, 0x00, 0x00, 0x00, 0x02, 0x00, 0x00, 0x00,
  0x20, 0x00, 0x00, 0x00, 0x04, 0x00, 0x00, 0x00, 0xf4, 0xff, 0xff, 0xff,
  0x0e, 0x00, 0x00, 0x00, 0x00, 0x00, 0x00, 0x0e, 0x0c, 0x00, 0x0c, 0x00,
  0x0b, 0x00, 0x00, 0x00, 0x00, 0x00, 0x04, 0x00, 0x0c, 0x00, 0x00, 0x00,
  0x09, 0x00, 0x00, 0x00, 0x00, 0x00, 0x00, 0x09
};

#endif //POSTURA_MODEL_H