#ifndef POSTURA_MODEL_H
#define POSTURA_MODEL_H

const unsigned int postura_model_len = 3896;
alignas(8) const unsigned char postura_model[] = {
  0x1c, 0x00, 0x00, 0x00, 0x54, 0x46, 0x4c, 0x33, 0x14, 0x00, 0x20, 0x00,
  0x1c, 0x00, 0x18, 0x00, 0x14, 0x00, 0x10, 0x00, 0x0c, 0x00, 0x00, 0x00,
  0x08, 0x00, 0x04, 0x00, 0x14, 0x00, 0x00, 0x00, 0x1c, 0x00, 0x00, 0x00,
  0x8c, 0x00, 0x00, 0x00, 0xe4, 0x00, 0x00, 0x00, 0x10, 0x09, 0x00, 0x00,
  0x20, 0x09, 0x00, 0x00, 0xd4, 0x0e, 0x00, 0x00, 0x03, 0x00, 0x00, 0x00,
  0x01, 0x00, 0x00, 0x00, 0x04, 0x00, 0x00, 0x00, 0xa2, 0xf6, 0xff, 0xff,
  0x0c, 0x00, 0x00, 0x00, 0x1c, 0x00, 0x00, 0x00, 0x3c, 0x00, 0x00, 0x00,
  0x0f, 0x00, 0x00, 0x00, 0x73, 0x65, 0x72, 0x76, 0x69, 0x6e, 0x67, 0x5f,
  0x64, 0x65, 0x66, 0x61, 0x75, 0x6c, 0x74, 0x00, 0x01, 0x00, 0x00, 0x00,
  0x04, 0x00, 0x00, 0x00, 0x90, 0xff, 0xff, 0xff, 0x0a, 0x00, 0x00, 0x00,
  0x04, 0x00, 0x00, 0x00, 0x08, 0x00, 0x00, 0x00, 0x6f, 0x75, 0x74, 0x70,
  0x75, 0x74, 0x5f, 0x30, 0x00, 0x00, 0x00, 0x00, 0x01, 0x00, 0x00, 0x00,
  0x04, 0x00, 0x00, 0x00, 0xb2, 0xf7, 0xff, 0xff, 0x04, 0x00, 0x00, 0x00,
  0x0f, 0x00, 0x00, 0x00, 0x6b, 0x65, 0x72, 0x61, 0x73, 0x5f, 0x74, 0x65,
  0x6e, 0x73, 0x6f, 0x72, 0x5f, 0x33, 0x30, 0x00, 0x02, 0x00, 0x00, 0x00,
  0x34, 0x00, 0x00, 0x00, 0x04, 0x00, 0x00, 0x00, 0xdc, 0xff, 0xff, 0xff,
  0x0d, 0x00, 0x00, 0x00, 0x04, 0x00, 0x00, 0x00, 0x13, 0x00, 0x00, 0x00,
  0x43, 0x4f, 0x4e, 0x56, 0x45, 0x52, 0x53, 0x49, 0x4f, 0x4e, 0x5f, 0x4d,
  0x45, 0x54, 0x41, 0x44, 0x41, 0x54, 0x41, 0x00, 0x08, 0x00, 0x0c, 0x00,
  0x08, 0x00, 0x04, 0x00, 0x08, 0x00, 0x00, 0x00, 0x0c, 0x00, 0x00, 0x00,
  0x04, 0x00, 0x00, 0x00, 0x13, 0x00, 0x00, 0x00, 0x6d, 0x69, 0x6e, 0x5f,
  0x72, 0x75, 0x6e, 0x74, 0x69, 0x6d, 0x65, 0x5f, 0x76, 0x65, 0x72, 0x73,
  0x69, 0x6f, 0x6e, 0x00, 0x0e, 0x00, 0x00, 0x00, 0x28, 0x08, 0x00, 0x00,
  0x20, 0x08, 0x00, 0x00, 0xd0, 0x07, 0x00, 0x00, 0xb8, 0x03, 0x00, 0x00,
  0xa4, 0x03, 0x00, 0x00, 0x54, 0x03, 0x00, 0x00, 0x04, 0x03, 0x00, 0x00,
  0xb4, 0x00, 0x00, 0x00, 0xac, 0x00, 0x00, 0x00, 0xa4, 0x00, 0x00, 0x00,
  0x9c, 0x00, 0x00, 0x00, 0x94, 0x00, 0x00, 0x00, 0x74, 0x00, 0x00, 0x00,
  0x04, 0x00, 0x00, 0x00, 0x66, 0xf8, 0xff, 0xff, 0x04, 0x00, 0x00, 0x00,
  0x60, 0x00, 0x00, 0x00, 0x0c, 0x00, 0x00, 0x00, 0x08, 0x00, 0x0e, 0x00,
  0x08, 0x00, 0x04, 0x00, 0x08, 0x00, 0x00, 0x00, 0x10, 0x00, 0x00, 0x00,
  0x28, 0x00, 0x00, 0x00, 0x00, 0x00, 0x06, 0x00, 0x08, 0x00, 0x04, 0x00,
  0x06, 0x00, 0x00, 0x00, 0x04, 0x00, 0x00, 0x00, 0x01, 0x00, 0x00, 0x00,
  0xea, 0x03, 0x00, 0x00, 0x0c, 0x00, 0x18, 0x00, 0x14, 0x00, 0x10, 0x00,
  0x0c, 0x00, 0x04, 0x00, 0x0c, 0x00, 0x00, 0x00, 0x9c, 0xe7, 0x1c, 0x56,
  0xf4, 0xb8, 0xc3, 0x4a, 0x02, 0x00, 0x00, 0x00, 0x02, 0x00, 0x00, 0x00,
  0x04, 0x00, 0x00, 0x00, 0x06, 0x00, 0x00, 0x00, 0x32, 0x2e, 0x31, 0x39,
  0x2e, 0x30, 0x00, 0x00, 0xd2, 0xf8, 0xff, 0xff, 0x04, 0x00, 0x00, 0x00,
  0x10, 0x00, 0x00, 0x00, 0x31, 0x2e, 0x31, 0x34, 0x2e, 0x30, 0x00, 0x00,
  0x00, 0x00, 0x00, 0x00, 0x00, 0x00, 0x00, 0x00, 0x04, 0xf3, 0xff, 0xff,
  0x08, 0xf3, 0xff, 0xff, 0x0c, 0xf3, 0xff, 0xff, 0x10, 0xf3, 0xff, 0xff,
  0xfe, 0xf8, 0xff, 0xff, 0x04, 0x00, 0x00, 0x00, 0x40, 0x02, 0x00, 0x00,
  0xc0, 0x62, 0x78, 0x3d, 0xc7, 0x70, 0xcf, 0x3d, 0xde, 0xfb, 0x5d, 0x3e,
  0xa6, 0xdf, 0xc8, 0x3c, 0x8c, 0xf0, 0xf2, 0x3e, 0x54, 0x25, 0x90, 0x3f,
  0x71, 0xe6, 0xb1, 0xbd, 0xcb, 0x92, 0x46, 0x3f, 0xeb, 0x64, 0x2f, 0xbd,
  0x30, 0xd7, 0xb3, 0x3d, 0x9d, 0xce, 0x47, 0xbf, 0x61, 0xf5, 0x42, 0x3d,
  0x0d, 0x49, 0x90, 0xbf, 0x84, 0x83, 0x1e, 0x3e, 0x36, 0xe2, 0xb2, 0x3f,
  0xc3, 0x94, 0xc3, 0x3d, 0xc9, 0xfc, 0x76, 0x3e, 0xdd, 0x8c, 0xcb, 0x3e,
  0x31, 0x51, 0x3a, 0xbe, 0xf8, 0xb9, 0xa0, 0x3c, 0xf2, 0xd8, 0xdd, 0xbd,
  0xc5, 0xc8, 0x63, 0xbf, 0x51, 0xfa, 0x39, 0xbe, 0x50, 0xd5, 0xe1, 0xbe,
  0x0b, 0x24, 0x0e, 0xbe, 0x52, 0xeb, 0xce, 0x3e, 0xa2, 0xb9, 0xaf, 0xbe,
  0x20, 0x9c, 0x93, 0x3d, 0x79, 0xb7, 0xa7, 0xbb, 0xd6, 0x2d, 0x4c, 0xbd,
  0x99, 0xf6, 0x88, 0x3e, 0x19, 0x0f, 0x8e, 0x3d, 0x69, 0x0f, 0xc9, 0x3e,
  0x45, 0x6a, 0x39, 0xbe, 0xba, 0xc8, 0xd9, 0xbd, 0x39, 0xbd, 0x6c, 0x3e,
  0x5f, 0x61, 0x85, 0xbf, 0xb1, 0x33, 0xdc, 0x3c, 0xbe, 0x5c, 0x4d, 0xbd,
  0x01, 0x9e, 0xdf, 0xbe, 0x4f, 0xb4, 0xa8, 0xbd, 0x0d, 0x68, 0xb4, 0xbf,
  0xc5, 0x34, 0x85, 0xbe, 0x63, 0x88, 0x00, 0x3f, 0x26, 0x48, 0xf9, 0xbd,
  0xd0, 0x2b, 0xd9, 0x3d, 0xd5, 0x32, 0x94, 0x3d, 0x28, 0xb9, 0xbb, 0x3d,
  0xfa, 0x87, 0x32, 0x3d, 0x4f, 0xc5, 0x30, 0x3f, 0xb1, 0x89, 0xca, 0x3f,
  0xd4, 0x65, 0x3b, 0xbe, 0x0c, 0xb1, 0xce, 0x3e, 0x0f, 0x53, 0x48, 0xbc,
  0x18, 0x65, 0x2d, 0x3e, 0x80, 0xcb, 0x6b, 0xbf, 0xe1, 0xe5, 0xc4, 0xbe,
  0x68, 0x55, 0xe4, 0xb9, 0x49, 0xa5, 0xaf, 0x3e, 0x60, 0x5c, 0x4c, 0x3f,
  0x48, 0x83, 0xdd, 0xbe, 0x03, 0xf9, 0xac, 0xbd, 0xa2, 0x34, 0xa8, 0x3d,
  0xb1, 0xbb, 0xb6, 0x3d, 0x7c, 0x12, 0x1f, 0x3e, 0x6e, 0x88, 0x65, 0x3d,
  0x70, 0xff, 0xc8, 0x3d, 0xc1, 0xd9, 0xc3, 0xbd, 0x25, 0x06, 0x0d, 0x3f,
  0xf3, 0xe0, 0x96, 0xbe, 0xb1, 0x67, 0x77, 0x3e, 0xb0, 0xf0, 0x9e, 0xbd,
  0xa3, 0x7b, 0x73, 0x3d, 0x75, 0xb8, 0x31, 0xbd, 0x0a, 0x0a, 0x54, 0x3d,
  0x0a, 0xae, 0x50, 0xbf, 0xe4, 0xeb, 0x03, 0x3f, 0x61, 0xe1, 0x8a, 0x3f,
  0x8f, 0xbe, 0x39, 0xbd, 0x54, 0xab, 0x8e, 0xbe, 0x80, 0x14, 0x23, 0xbd,
  0x8f, 0xe4, 0x0f, 0xbf, 0x38, 0xfe, 0x9c, 0xbe, 0x91, 0xb5, 0x20, 0x3e,
  0x62, 0xef, 0x2a, 0xbe, 0xc3, 0xb7, 0xd6, 0xbd, 0x63, 0x4d, 0xf8, 0xbe,
  0x8b, 0x1d, 0xa8, 0x3e, 0x43, 0x6d, 0xca, 0x3e, 0xb1, 0x67, 0x7a, 0xbf,
  0xd3, 0x65, 0x99, 0xbf, 0x29, 0x50, 0xbc, 0xbd, 0x49, 0x57, 0x03, 0xbf,
  0x34, 0xaf, 0x06, 0x3e, 0xc0, 0x24, 0xae, 0xbf, 0x70, 0x38, 0x60, 0xbf,
  0x74, 0x75, 0x5d, 0xbe, 0x97, 0x7b, 0x51, 0xbf, 0xbc, 0x54, 0x8d, 0x3a,
  0x46, 0x40, 0x72, 0xbe, 0x5f, 0x7d, 0x99, 0xbe, 0xe6, 0x31, 0x68, 0xbf,
  0x1e, 0xe2, 0x16, 0x3e, 0xda, 0x4b, 0x37, 0xbe, 0xa0, 0x85, 0x8a, 0xbf,
  0xf6, 0xed, 0x44, 0xbe, 0x63, 0x43, 0xcd, 0xbf, 0x43, 0x1c, 0x92, 0x3e,
  0x20, 0x3d, 0x88, 0x36, 0x8e, 0xca, 0xa5, 0xbb, 0x70, 0x7b, 0x44, 0xbd,
  0x3d, 0x85, 0x63, 0x3e, 0x38, 0x7f, 0x10, 0x3f, 0x21, 0xa8, 0x91, 0x3f,
  0x19, 0x18, 0x88, 0xbe, 0x38, 0x7d, 0x0f, 0xbd, 0x51, 0x6c, 0x98, 0x3e,
  0xc8, 0x62, 0x83, 0x3d, 0xa6, 0x83, 0xbf, 0x3c, 0xab, 0x17, 0x8a, 0x3e,
  0x82, 0xf8, 0x24, 0x3d, 0xaf, 0xb9, 0x0e, 0x3f, 0x0e, 0x40, 0xe7, 0x3f,
  0xab, 0xa2, 0x84, 0xbd, 0xc2, 0xf2, 0x10, 0x3f, 0xd6, 0x7a, 0x17, 0xbe,
  0xa4, 0x10, 0x2b, 0x3e, 0x03, 0xd3, 0xa6, 0xbd, 0x90, 0x09, 0x5f, 0x3e,
  0x87, 0x03, 0x19, 0xbf, 0xc8, 0x65, 0xe0, 0xbe, 0x4d, 0x45, 0x91, 0xbe,
  0x0d, 0x07, 0x93, 0x3e, 0x0e, 0x0a, 0xcc, 0xbe, 0xe6, 0xc6, 0xa4, 0xbf,
  0xa0, 0x82, 0x33, 0x3e, 0x20, 0x54, 0xc8, 0x3d, 0x61, 0x17, 0xb4, 0xbf,
  0x40, 0xb6, 0x22, 0x3d, 0x83, 0xfe, 0xb9, 0xbb, 0xc4, 0x23, 0x0a, 0xbe,
  0x8e, 0xa5, 0xed, 0x3e, 0x38, 0x1c, 0x8f, 0xbf, 0x2b, 0x35, 0x3a, 0xbf,
  0x4a, 0xfb, 0xff, 0xff, 0x04, 0x00, 0x00, 0x00, 0x40, 0x00, 0x00, 0x00,
  0x67, 0xaf, 0xdc, 0xbe, 0x79, 0x44, 0x0d, 0xbf, 0x85, 0x9e, 0x12, 0x3f,
  0xf8, 0x5c, 0x68, 0xbc, 0x19, 0x62, 0xe3, 0x3e, 0x5d, 0x63, 0x97, 0xbe,
  0x3e, 0xc5, 0x20, 0xbe, 0xc2, 0x88, 0x00, 0xbe, 0xea, 0x94, 0xe0, 0xbe,
  0x18, 0xd9, 0x8b, 0x3e, 0x27, 0x46, 0x54, 0xbe, 0xea, 0x07, 0xa2, 0x3e,
  0x9a, 0x92, 0x34, 0x3c, 0xd2, 0xb7, 0x15, 0xbf, 0x97, 0x51, 0x38, 0x3e,
  0x01, 0x56, 0x33, 0xbe, 0x96, 0xfb, 0xff, 0xff, 0x04, 0x00, 0x00, 0x00,
  0x40, 0x00, 0x00, 0x00, 0x5d, 0x6e, 0x89, 0x3e, 0xfd, 0xc5, 0xb7, 0x3e,
  0xc5, 0x75, 0xb8, 0x3e, 0x93, 0x1c, 0xa0, 0xbc, 0xdf, 0x61, 0x11, 0x3e,
  0xce, 0x0e, 0x02, 0x3f, 0xc8, 0x1f, 0x6a, 0x3d, 0x97, 0xbc, 0x56, 0x3e,
  0x93, 0x32, 0x06, 0x3e, 0xa5, 0x17, 0xb4, 0x3e, 0xdd, 0x2b, 0x8e, 0xbe,
  0x6d, 0x19, 0xb3, 0xbd, 0xe3, 0x05, 0x1a, 0x3f, 0x6d, 0x8f, 0x18, 0xbe,
  0x99, 0x23, 0xc5, 0x3e, 0x10, 0x66, 0x5a, 0x3e, 0xe2, 0xfb, 0xff, 0xff,
  0x04, 0x00, 0x00, 0x00, 0x04, 0x00, 0x00, 0x00, 0x70, 0x05, 0x4d, 0xbe,
  0xf2, 0xfb, 0xff, 0xff, 0x04, 0x00, 0x00, 0x00, 0x00, 0x04, 0x00, 0x00,
  0xc4, 0x93, 0xee, 0x3e, 0x4f, 0x5e, 0x8c, 0x3e, 0x93, 0x51, 0x05, 0xbf,
  0xf5, 0x16, 0xae, 0x3d, 0x02, 0xc1, 0x95, 0xbf, 0x9a, 0x5c, 0x15, 0x3e,
  0xab, 0x75, 0xb9, 0x3e, 0x9f, 0xb3, 0x00, 0xbe, 0x91, 0xe4, 0x82, 0xbd,
  0x35, 0x47, 0x36, 0xbf, 0xf8, 0x01, 0x01, 0xbf, 0xb5, 0xbc, 0xee, 0xbe,
  0xf5, 0x1f, 0x14, 0x3e, 0xa7, 0xf1, 0x97, 0x3e, 0xa8, 0x4d, 0xb6, 0xbe,
  0x19, 0x96, 0x57, 0xbe, 0x1c, 0x2c, 0x2b, 0x3e, 0x13, 0x9a, 0xe5, 0xbe,
  0x0c, 0x06, 0x06, 0x3e, 0x26, 0xc4, 0xc0, 0xbe, 0x0f, 0x11, 0x83, 0x3f,
  0x5d, 0xbb, 0x8c, 0xbd, 0xc6, 0xf8, 0x67, 0xbf, 0x59, 0xfc, 0x92, 0xbe,
  0xb8, 0xd7, 0x94, 0xbd, 0x6f, 0x35, 0x9a, 0x3d, 0xe6, 0x4f, 0xb1, 0x3e,
  0xf1, 0x11, 0x03, 0xbf, 0x63, 0x5a, 0x4e, 0xbe, 0xcb, 0x07, 0xe8, 0x3d,
  0xb5, 0xef, 0x1d, 0xbe, 0xa5, 0x42, 0xbb, 0xbd, 0x1f, 0xc3, 0x09, 0xbd,
  0xf9, 0xbb, 0xb4, 0xbe, 0x59, 0x4a, 0xe9, 0x3e, 0x7d, 0xc9, 0x09, 0xbf,
  0x67, 0xbb, 0xc1, 0x3e, 0x2b, 0xc3, 0xa3, 0xbd, 0x3c, 0xdc, 0xf2, 0x3d,
  0x44, 0x6b, 0x17, 0xbd, 0x01, 0xc5, 0x46, 0xbe, 0x6a, 0x0b, 0x6a, 0x3d,
  0x61, 0x2c, 0xaa, 0xbe, 0x3c, 0xc6, 0x35, 0xbf, 0x06, 0x1d, 0xbc, 0xbd,
  0xab, 0xf3, 0x05, 0xbd, 0x26, 0x3b, 0x62, 0x3d, 0x3a, 0x78, 0x91, 0xbc,
  0xe5, 0x73, 0x3a, 0x3e, 0xa9, 0x99, 0x18, 0x3f, 0x1d, 0x54, 0x2f, 0xbe,
  0x94, 0x94, 0xf9, 0x3d, 0xcf, 0x68, 0x97, 0xbe, 0xd6, 0x21, 0x54, 0x3e,
  0x16, 0x44, 0xd6, 0x3e, 0x92, 0xa2, 0xb5, 0xba, 0x90, 0xbf, 0x35, 0x3f,
  0x6a, 0x39, 0x4a, 0xbe, 0xf7, 0x1f, 0xb1, 0xbe, 0x6c, 0xc1, 0xf1, 0xbe,
  0xfc, 0x91, 0x08, 0x3e, 0xc0, 0x0f, 0xb0, 0x3e, 0x1a, 0xbc, 0x61, 0xbe,
  0xca, 0x1b, 0xb0, 0xbd, 0xb3, 0x7e, 0x8d, 0xbe, 0x65, 0xfa, 0x11, 0xbf,
  0xd0, 0x0e, 0xd1, 0x3d, 0x05, 0x90, 0x85, 0x3d, 0x03, 0x38, 0xf4, 0x3e,
  0x33, 0xd8, 0xb3, 0xbe, 0x35, 0x7b, 0x41, 0x3d, 0x7c, 0xc2, 0x18, 0xbe,
  0xde, 0xd1, 0xcd, 0xbe, 0x48, 0x7b, 0x8f, 0x3e, 0x03, 0xff, 0x21, 0x3f,
  0xbe, 0x2b, 0xbb, 0xbe, 0x10, 0x1e, 0xd2, 0x39, 0xfd, 0x22, 0xc1, 0x3d,
  0xe5, 0xfb, 0x9d, 0x3e, 0xd6, 0xc0, 0x7c, 0x3d, 0x77, 0x42, 0x85, 0xbd,
  0x87, 0x9f, 0x3a, 0xbf, 0x5f, 0x89, 0x28, 0x3f, 0x36, 0xfc, 0x73, 0xbf,
  0x46, 0x9a, 0x79, 0xbc, 0x47, 0xd9, 0x12, 0xbe, 0x56, 0xf0, 0x07, 0xbf,
  0xa3, 0x0c, 0x35, 0xbe, 0x6b, 0xd4, 0x3a, 0xbf, 0x7b, 0x02, 0x42, 0x3e,
  0xf6, 0x0d, 0xca, 0x3e, 0xf2, 0xf8, 0x07, 0xbe, 0xcf, 0x2c, 0xee, 0xbd,
  0x7a, 0x62, 0xc7, 0x3e, 0x9c, 0xdc, 0x67, 0xbd, 0xa7, 0x67, 0x60, 0x3e,
  0x70, 0xa2, 0x1f, 0x3d, 0x3a, 0xe9, 0x73, 0xbe, 0xb7, 0x80, 0x17, 0x3f,
  0xdc, 0x63, 0xa5, 0xbe, 0x0f, 0xd0, 0xee, 0x3e, 0x17, 0xc2, 0x59, 0xbe,
  0x23, 0x68, 0x26, 0xbf, 0xe8, 0xc9, 0x89, 0xbd, 0x75, 0x21, 0x15, 0xbf,
  0x72, 0xea, 0xdc, 0x3e, 0x44, 0xc6, 0xdc, 0x3e, 0xdd, 0x65, 0x68, 0x3e,
  0xa9, 0xfa, 0xca, 0x3e, 0xa3, 0xc3, 0xbc, 0xbd, 0xc0, 0x92, 0x86, 0x3d,
  0xad, 0xa6, 0x24, 0x3b, 0xbd, 0x1c, 0xc0, 0xbd, 0xd0, 0x08, 0x85, 0x3e,
  0xe3, 0x73, 0x20, 0xbf, 0xb9, 0x71, 0x26, 0xbe, 0xbb, 0x7b, 0x5b, 0xbf,
  0x0b, 0x02, 0x71, 0x3e, 0xab, 0x3e, 0x8a, 0x3e, 0x99, 0xbf, 0x20, 0x3e,
  0x0b, 0x8f, 0x16, 0x3f, 0x37, 0x1b, 0xcd, 0xbe, 0x29, 0x29, 0x89, 0xbd,
  0xd8, 0xa2, 0x84, 0xbe, 0x73, 0x0a, 0x32, 0x3e, 0xb2, 0x29, 0x9a, 0x3e,
  0xd2, 0x87, 0x63, 0xbe, 0xda, 0xc1, 0x2e, 0xbe, 0xce, 0x59, 0xe2, 0xbe,
  0x48, 0x20, 0x12, 0xbf, 0x65, 0x41, 0x82, 0x3f, 0x03, 0xac, 0xe9, 0x3d,
  0x17, 0x71, 0x68, 0x3f, 0x57, 0x24, 0x5a, 0x3d, 0xf1, 0xe4, 0x87, 0xbf,
  0x2f, 0x21, 0xae, 0xbd, 0x46, 0x71, 0x73, 0xbd, 0xb9, 0xe1, 0x80, 0x3e,
  0xfa, 0x3b, 0x03, 0x3f, 0x0c, 0xeb, 0x78, 0xbd, 0x96, 0x46, 0x83, 0x3e,
  0x31, 0xb9, 0x4b, 0xbf, 0x91, 0x72, 0x30, 0x3e, 0x44, 0xe3, 0x44, 0xbe,
  0x37, 0x16, 0x19, 0x3e, 0xd5, 0x02, 0x7d, 0xbf, 0x42, 0x5f, 0x09, 0x3f,
  0x5b, 0xc8, 0x39, 0xbf, 0xbd, 0xc7, 0x81, 0x3f, 0x8a, 0x79, 0x23, 0xbd,
  0x16, 0x85, 0x9c, 0xbf, 0x06, 0xe9, 0x30, 0xbe, 0xfd, 0x12, 0x10, 0xbf,
  0x5e, 0xe0, 0x90, 0x3e, 0xf6, 0xf5, 0x17, 0x3f, 0xb3, 0xa4, 0x7a, 0xbe,
  0x36, 0x98, 0x13, 0x3d, 0x84, 0xc5, 0xcb, 0x3c, 0xac, 0x85, 0x61, 0x3e,
  0xed, 0xa6, 0xb8, 0xbe, 0x90, 0x02, 0xb0, 0xbd, 0x75, 0x3f, 0x6d, 0x3f,
  0x79, 0xc0, 0xac, 0x3e, 0xbc, 0x8f, 0x3d, 0xbe, 0x3d, 0x6a, 0xf0, 0x3d,
  0xce, 0x94, 0x3d, 0xbe, 0xf1, 0x35, 0x24, 0x3f, 0x1f, 0x1e, 0x2b, 0xbe,
  0xb0, 0x0b, 0x7c, 0x3e, 0x55, 0xa5, 0xb9, 0xbc, 0x41, 0x13, 0x6b, 0xbe,
  0xf2, 0x61, 0x0a, 0xbe, 0x12, 0x4d, 0x83, 0x3e, 0x82, 0xc1, 0xbf, 0x3e,
  0x78, 0x08, 0x90, 0xbe, 0x71, 0x6a, 0xc0, 0x3e, 0x40, 0xc6, 0xd8, 0x3e,
  0x33, 0x78, 0xf3, 0x3e, 0x1c, 0x44, 0x03, 0xbf, 0x87, 0x17, 0x31, 0x3e,
  0xf1, 0x82, 0x5b, 0xbf, 0x07, 0xca, 0xd7, 0x3e, 0xb8, 0xba, 0x15, 0x3f,
  0xa8, 0x40, 0xb2, 0xbd, 0x10, 0xea, 0xae, 0x3e, 0x07, 0x5a, 0x10, 0xbe,
  0x5b, 0x05, 0x0d, 0x3d, 0x9c, 0x5d, 0xe6, 0xbe, 0x91, 0x91, 0xdf, 0x3d,
  0xbe, 0xf0, 0xf8, 0x3d, 0x16, 0xdc, 0x70, 0xbc, 0x28, 0xd9, 0xdd, 0xbe,
  0x9a, 0x25, 0x54, 0xbf, 0x63, 0xc2, 0x21, 0xbf, 0xa5, 0xff, 0x8b, 0x3e,
  0xdf, 0x99, 0x7c, 0xbe, 0x5e, 0x7f, 0x8d, 0xbd, 0xcf, 0x4e, 0x17, 0xbe,
  0xd1, 0xec, 0x97, 0x3e, 0xef, 0x27, 0x9b, 0xbe, 0xea, 0x34, 0x47, 0xbf,
  0x5b, 0x44, 0xee, 0x3e, 0x98, 0x09, 0xe5, 0xbe, 0x16, 0xfd, 0x7b, 0xbf,
  0x06, 0x48, 0x3d, 0xbf, 0x4f, 0x6c, 0xc0, 0xbe, 0x81, 0xd1, 0x08, 0x3e,
  0x87, 0x1b, 0xc0, 0xbc, 0xf7, 0x5d, 0x8c, 0xbe, 0x17, 0xff, 0xba, 0x3b,
  0x7e, 0xa9, 0x8b, 0xbd, 0x27, 0xf3, 0xa0, 0xbe, 0x2e, 0x3c, 0x8a, 0xbd,
  0x80, 0xd8, 0x20, 0xbe, 0x2d, 0x15, 0xb8, 0xbd, 0xc6, 0x68, 0x4f, 0x3e,
  0xcd, 0xca, 0x7d, 0x3f, 0xa0, 0x4e, 0x2b, 0x3e, 0x4f, 0x91, 0x0f, 0xbd,
  0x02, 0xec, 0x67, 0xbc, 0x08, 0x2c, 0xe8, 0xbd, 0xc2, 0xae, 0x5f, 0xbd,
  0xfd, 0x3e, 0xce, 0x3e, 0xea, 0x04, 0x6c, 0xbe, 0xe7, 0x10, 0xda, 0xbd,
  0xa0, 0x57, 0x28, 0xbf, 0x17, 0xef, 0x1d, 0x3f, 0x0d, 0x30, 0xbb, 0xbe,
  0x5c, 0x1b, 0x17, 0x3f, 0x9d, 0x7f, 0x07, 0x3e, 0xd9, 0xe8, 0x26, 0xbe,
  0x18, 0x8b, 0xcb, 0xbd, 0xc1, 0x7d, 0x9b, 0xbf, 0x8f, 0x77, 0x8b, 0x3e,
  0x02, 0xf8, 0x5c, 0xbc, 0x6e, 0xf3, 0x20, 0xbf, 0x71, 0xbb, 0x6f, 0xbf,
  0x50, 0xf1, 0x70, 0x3d, 0xdc, 0xa5, 0xb1, 0x3e, 0xd0, 0x6e, 0xb3, 0x3e,
  0x57, 0x6e, 0xcf, 0xbe, 0x11, 0x0a, 0x21, 0xbf, 0x55, 0xd4, 0x20, 0x3f,
  0x0e, 0x89, 0xf4, 0x3d, 0x72, 0x57, 0x3a, 0x3f, 0x6a, 0xa2, 0xd2, 0xbd,
  0x4c, 0x02, 0x18, 0xbf, 0x29, 0xf0, 0xaf, 0xbd, 0x31, 0xed, 0x9a, 0xbd,
  0x36, 0xc0, 0x2e, 0xbe, 0xc7, 0xb5, 0x23, 0x3e, 0xf3, 0x71, 0xcf, 0x3d,
  0x47, 0xdb, 0x0f, 0x3e, 0x9d, 0xcf, 0x25, 0xbf, 0x47, 0x52, 0x29, 0x3e,
  0x0d, 0x39, 0x98, 0x3d, 0x00, 0x00, 0x06, 0x00, 0x08, 0x00, 0x04, 0x00,
  0x06, 0x00, 0x00, 0x00, 0x04, 0x00, 0x00, 0x00, 0x40, 0x00, 0x00, 0x00,
  0x40, 0x53, 0x04, 0xbf, 0x72, 0x54, 0x27, 0x3f, 0x79, 0xa6, 0x7d, 0x3f,
  0x03, 0xea, 0xc8, 0xbe, 0x04, 0x95, 0x08, 0x3f, 0x22, 0x64, 0xd5, 0x3e,
  0xb1, 0x50, 0x6f, 0x3e, 0x40, 0x02, 0x32, 0xbf, 0x51, 0xf4, 0xc2, 0x3e,
  0x13, 0xe3, 0xbb, 0x3e, 0x61, 0xfb, 0x12, 0xbf, 0xde, 0x15, 0xf4, 0xbe,
  0x6e, 0xa6, 0x9f, 0x3f, 0x6c, 0x62, 0x3f, 0xbf, 0xf0, 0xc3, 0xc6, 0x3e,
  0x62, 0x8e, 0xce, 0x3e, 0x68, 0xfa, 0xff, 0xff, 0x6c, 0xfa, 0xff, 0xff,
  0x0f, 0x00, 0x00, 0x00, 0x4d, 0x4c, 0x49, 0x52, 0x20, 0x43, 0x6f, 0x6e,
  0x76, 0x65, 0x72, 0x74, 0x65, 0x64, 0x2e, 0x00, 0x01, 0x00, 0x00, 0x00,
  0x14, 0x00, 0x00, 0x00, 0x00, 0x00, 0x0e, 0x00, 0x18, 0x00, 0x14, 0x00,
  0x10, 0x00, 0x0c, 0x00, 0x08, 0x00, 0x04, 0x00, 0x0e, 0x00, 0x00, 0x00,
  0x14, 0x00, 0x00, 0x00, 0x1c, 0x00, 0x00, 0x00, 0x18, 0x01, 0x00, 0x00,
  0x1c, 0x01, 0x00, 0x00, 0x20, 0x01, 0x00, 0x00, 0x04, 0x00, 0x00, 0x00,
  0x6d, 0x61, 0x69, 0x6e, 0x00, 0x00, 0x00, 0x00, 0x04, 0x00, 0x00, 0x00,
  0xc0, 0x00, 0x00, 0x00, 0x78, 0x00, 0x00, 0x00, 0x34, 0x00, 0x00, 0x00,
  0x10, 0x00, 0x00, 0x00, 0x00, 0x00, 0x0a, 0x00, 0x10, 0x00, 0x0c, 0x00,
  0x08, 0x00, 0x04, 0x00, 0x0a, 0x00, 0x00, 0x00, 0x0c, 0x00, 0x00, 0x00,
  0x10, 0x00, 0x00, 0x00, 0x01, 0x00, 0x00, 0x00, 0x01, 0x00, 0x00, 0x00,
  0x0a, 0x00, 0x00, 0x00, 0x01, 0x00, 0x00, 0x00, 0x09, 0x00, 0x00, 0x00,
  0xce, 0xff, 0xff, 0xff, 0x10, 0x00, 0x00, 0x00, 0x00, 0x00, 0x00, 0x08,
  0x0c, 0x00, 0x00, 0x00, 0x10, 0x00, 0x00, 0x00, 0x14, 0xfb, 0xff, 0xff,
  0x01, 0x00, 0x00, 0x00, 0x09, 0x00, 0x00, 0x00, 0x03, 0x00, 0x00, 0x00,
  0x08, 0x00, 0x00, 0x00, 0x01, 0x00, 0x00, 0x00, 0x03, 0x00, 0x00, 0x00,
  0x00, 0x00, 0x0e, 0x00, 0x14, 0x00, 0x00, 0x00, 0x10, 0x00, 0x0c, 0x00,
  0x0b, 0x00, 0x04, 0x00, 0x0e, 0x00, 0x00, 0x00, 0x10, 0x00, 0x00, 0x00,
  0x00, 0x00, 0x00, 0x08, 0x10, 0x00, 0x00, 0x00, 0x14, 0x00, 0x00, 0x00,
  0xba, 0xff, 0xff, 0xff, 0x00, 0x00, 0x00, 0x01, 0x01, 0x00, 0x00, 0x00,
  0x08, 0x00, 0x00, 0x00, 0x03, 0x00, 0x00, 0x00, 0x07, 0x00, 0x00, 0x00,
  0x02, 0x00, 0x00, 0x00, 0x04, 0x00, 0x00, 0x00, 0x00, 0x00, 0x0e, 0x00,
  0x16, 0x00, 0x00, 0x00, 0x10, 0x00, 0x0c, 0x00, 0x0b, 0x00, 0x04, 0x00,
  0x0e, 0x00, 0x00, 0x00, 0x18, 0x00, 0x00, 0x00, 0x00, 0x00, 0x00, 0x08,
  0x18, 0x00, 0x00, 0x00, 0x1c, 0x00, 0x00, 0x00, 0x00, 0x00, 0x06, 0x00,
  0x08, 0x00, 0x07, 0x00, 0x06, 0x00, 0x00, 0x00, 0x00, 0x00, 0x00, 0x01,
  0x01, 0x00, 0x00, 0x00, 0x07, 0x00, 0x00, 0x00, 0x03, 0x00, 0x00, 0x00,
  0x00, 0x00, 0x00, 0x00, 0x06, 0x00, 0x00, 0x00, 0x05, 0x00, 0x00, 0x00,
  0x01, 0x00, 0x00, 0x00, 0x0a, 0x00, 0x00, 0x00, 0x01, 0x00, 0x00, 0x00,
  0x00, 0x00, 0x00, 0x00, 0x0b, 0x00, 0x00, 0x00, 0x04, 0x04, 0x00, 0x00,
  0xac, 0x03, 0x00, 0x00, 0x54, 0x03, 0x00, 0x00, 0x18, 0x03, 0x00, 0x00,
  0xdc, 0x02, 0x00, 0x00, 0x7c, 0x02, 0x00, 0x00, 0x28, 0x02, 0x00, 0x00,
  0x84, 0x01, 0x00, 0x00, 0xe0, 0x00, 0x00, 0x00, 0x60, 0x00, 0x00, 0x00,
  0x04, 0x00, 0x00, 0x00, 0x3e, 0xfc, 0xff, 0xff, 0x00, 0x00, 0x00, 0x01,
  0x14, 0x00, 0x00, 0x00, 0x1c, 0x00, 0x00, 0x00, 0x1c, 0x00, 0x00, 0x00,
  0x0b, 0x00, 0x00, 0x00, 0x34, 0x00, 0x00, 0x00, 0x02, 0x00, 0x00, 0x00,
  0xff, 0xff, 0xff, 0xff, 0x01, 0x00, 0x00, 0x00, 0x28, 0xfc, 0xff, 0xff,
  0x1b, 0x00, 0x00, 0x00, 0x53, 0x74, 0x61, 0x74, 0x65, 0x66, 0x75, 0x6c,
  0x50, 0x61, 0x72, 0x74, 0x69, 0x74, 0x69, 0x6f, 0x6e, 0x65, 0x64, 0x43,
  0x61, 0x6c, 0x6c, 0x5f, 0x31, 0x3a, 0x30, 0x00, 0x02, 0x00, 0x00, 0x00,
  0x01, 0x00, 0x00, 0x00, 0x01, 0x00, 0x00, 0x00, 0x96, 0xfc, 0xff, 0xff,
  0x00, 0x00, 0x00, 0x01, 0x14, 0x00, 0x00, 0x00, 0x1c, 0x00, 0x00, 0x00,
  0x1c, 0x00, 0x00, 0x00, 0x0a, 0x00, 0x00, 0x00, 0x58, 0x00, 0x00, 0x00,
  0x02, 0x00, 0x00, 0x00, 0xff, 0xff, 0xff, 0xff, 0x01, 0x00, 0x00, 0x00,
  0x80, 0xfc, 0xff, 0xff, 0x3e, 0x00, 0x00, 0x00, 0x73, 0x65, 0x71, 0x75,
  0x65, 0x6e, 0x74, 0x69, 0x61, 0x6c, 0x5f, 0x35, 0x5f, 0x31, 0x2f, 0x64,
  0x65, 0x6e, 0x73, 0x65, 0x5f, 0x31, 0x37, 0x5f, 0x31, 0x2f, 0x4d, 0x61,
  0x74, 0x4d, 0x75, 0x6c, 0x3b, 0x73, 0x65, 0x71, 0x75, 0x65, 0x6e, 0x74,
  0x69, 0x61, 0x6c, 0x5f, 0x35, 0x5f, 0x31, 0x2f, 0x64, 0x65, 0x6e, 0x73,
  0x65, 0x5f, 0x31, 0x37, 0x5f, 0x31, 0x2f, 0x41, 0x64, 0x64, 0x00, 0x00,
  0x02, 0x00, 0x00, 0x00, 0x01, 0x00, 0x00, 0x00, 0x01, 0x00, 0x00, 0x00,
  0x12, 0xfd, 0xff, 0xff, 0x00, 0x00, 0x00, 0x01, 0x14, 0x00, 0x00, 0x00,
  0x1c, 0x00, 0x00, 0x00, 0x1c, 0x00, 0x00, 0x00, 0x09, 0x00, 0x00, 0x00,
  0x7c, 0x00, 0x00, 0x00, 0x02, 0x00, 0x00, 0x00, 0xff, 0xff, 0xff, 0xff,
  0x10, 0x00, 0x00, 0x00, 0xfc, 0xfc, 0xff, 0xff, 0x61, 0x00, 0x00, 0x00,
  0x73, 0x65, 0x71, 0x75, 0x65, 0x6e, 0x74, 0x69, 0x61, 0x6c, 0x5f, 0x35,
  0x5f, 0x31, 0x2f, 0x64, 0x65, 0x6e, 0x73, 0x65, 0x5f, 0x31, 0x36, 0x5f,
  0x31, 0x2f, 0x4d, 0x61, 0x74, 0x4d, 0x75, 0x6c, 0x3b, 0x73, 0x65, 0x71,
  0x75, 0x65, 0x6e, 0x74, 0x69, 0x61, 0x6c, 0x5f, 0x35, 0x5f, 0x31, 0x2f,
  0x64, 0x65, 0x6e, 0x73, 0x65, 0x5f, 0x31, 0x36, 0x5f, 0x31, 0x2f, 0x52,
  0x65, 0x6c, 0x75, 0x3b, 0x73, 0x65, 0x71, 0x75, 0x65, 0x6e, 0x74, 0x69,
  0x61, 0x6c, 0x5f, 0x35, 0x5f, 0x31, 0x2f, 0x64, 0x65, 0x6e, 0x73, 0x65,
  0x5f, 0x31, 0x36, 0x5f, 0x31, 0x2f, 0x42, 0x69, 0x61, 0x73, 0x41, 0x64,
  0x64, 0x00, 0x00, 0x00, 0x02, 0x00, 0x00, 0x00, 0x01, 0x00, 0x00, 0x00,
  0x10, 0x00, 0x00, 0x00, 0xb2, 0xfd, 0xff, 0xff, 0x00, 0x00, 0x00, 0x01,
  0x14, 0x00, 0x00, 0x00, 0x1c, 0x00, 0x00, 0x00, 0x1c, 0x00, 0x00, 0x00,
  0x08, 0x00, 0x00, 0x00, 0x7c, 0x00, 0x00, 0x00, 0x02, 0x00, 0x00, 0x00,
  0xff, 0xff, 0xff, 0xff, 0x10, 0x00, 0x00, 0x00, 0x9c, 0xfd, 0xff, 0xff,
  0x61, 0x00, 0x00, 0x00, 0x73, 0x65, 0x71, 0x75, 0x65, 0x6e, 0x74, 0x69,
  0x61, 0x6c, 0x5f, 0x35, 0x5f, 0x31, 0x2f, 0x64, 0x65, 0x6e, 0x73, 0x65,
  0x5f, 0x31, 0x35, 0x5f, 0x31, 0x2f, 0x4d, 0x61, 0x74, 0x4d, 0x75, 0x6c,
  0x3b, 0x73, 0x65, 0x71, 0x75, 0x65, 0x6e, 0x74, 0x69, 0x61, 0x6c, 0x5f,
  0x35, 0x5f, 0x31, 0x2f, 0x64, 0x65, 0x6e, 0x73, 0x65, 0x5f, 0x31, 0x35,
  0x5f, 0x31, 0x2f, 0x52, 0x65, 0x6c, 0x75, 0x3b, 0x73, 0x65, 0x71, 0x75,
  0x65, 0x6e, 0x74, 0x69, 0x61, 0x6c, 0x5f, 0x35, 0x5f, 0x31, 0x2f, 0x64,
  0x65, 0x6e, 0x73, 0x65, 0x5f, 0x31, 0x35, 0x5f, 0x31, 0x2f, 0x42, 0x69,
  0x61, 0x73, 0x41, 0x64, 0x64, 0x00, 0x00, 0x00, 0x02, 0x00, 0x00, 0x00,
  0x01, 0x00, 0x00, 0x00, 0x10, 0x00, 0x00, 0x00, 0xa6, 0xfe, 0xff, 0xff,
  0x00, 0x00, 0x00, 0x01, 0x10, 0x00, 0x00, 0x00, 0x10, 0x00, 0x00, 0x00,
  0x07, 0x00, 0x00, 0x00, 0x30, 0x00, 0x00, 0x00, 0x2c, 0xfe, 0xff, 0xff,
  0x20, 0x00, 0x00, 0x00, 0x73, 0x65, 0x71, 0x75, 0x65, 0x6e, 0x74, 0x69,
  0x61, 0x6c, 0x5f, 0x35, 0x5f, 0x31, 0x2f, 0x64, 0x65, 0x6e, 0x73, 0x65,
  0x5f, 0x31, 0x35, 0x5f, 0x31, 0x2f, 0x4d, 0x61, 0x74, 0x4d, 0x75, 0x6c,
  0x00, 0x00, 0x00, 0x00, 0x02, 0x00, 0x00, 0x00, 0x10, 0x00, 0x00, 0x00,
  0x09, 0x00, 0x00, 0x00, 0xf6, 0xfe, 0xff, 0xff, 0x00, 0x00, 0x00, 0x01,
  0x10, 0x00, 0x00, 0x00, 0x10, 0x00, 0x00, 0x00, 0x06, 0x00, 0x00, 0x00,
  0x40, 0x00, 0x00, 0x00, 0x7c, 0xfe, 0xff, 0xff, 0x30, 0x00, 0x00, 0x00,
  0x73, 0x65, 0x71, 0x75, 0x65, 0x6e, 0x74, 0x69, 0x61, 0x6c, 0x5f, 0x35,
  0x5f, 0x31, 0x2f, 0x64, 0x65, 0x6e, 0x73, 0x65, 0x5f, 0x31, 0x35, 0x5f,
  0x31, 0x2f, 0x42, 0x69, 0x61, 0x73, 0x41, 0x64, 0x64, 0x2f, 0x52, 0x65,
  0x61, 0x64, 0x56, 0x61, 0x72, 0x69, 0x61, 0x62, 0x6c, 0x65, 0x4f, 0x70,
  0x00, 0x00, 0x00, 0x00, 0x01, 0x00, 0x00, 0x00, 0x10, 0x00, 0x00, 0x00,
  0x52, 0xff, 0xff, 0xff, 0x00, 0x00, 0x00, 0x01, 0x10, 0x00, 0x00, 0x00,
  0x10, 0x00, 0x00, 0x00, 0x05, 0x00, 0x00, 0x00, 0x1c, 0x00, 0x00, 0x00,
  0xd8, 0xfe, 0xff, 0xff, 0x0f, 0x00, 0x00, 0x00, 0x61, 0x72, 0x69, 0x74,
  0x68, 0x2e, 0x63, 0x6f, 0x6e, 0x73, 0x74, 0x61, 0x6e, 0x74, 0x33, 0x00,
  0x01, 0x00, 0x00, 0x00, 0x10, 0x00, 0x00, 0x00, 0x8a, 0xff, 0xff, 0xff,
  0x00, 0x00, 0x00, 0x01, 0x10, 0x00, 0x00, 0x00, 0x10, 0x00, 0x00, 0x00,
  0x04, 0x00, 0x00, 0x00, 0x1c, 0x00, 0x00, 0x00, 0x10, 0xff, 0xff, 0xff,
  0x0f, 0x00, 0x00, 0x00, 0x61, 0x72, 0x69, 0x74, 0x68, 0x2e, 0x63, 0x6f,
  0x6e, 0x73, 0x74, 0x61, 0x6e, 0x74, 0x32, 0x00, 0x01, 0x00, 0x00, 0x00,
  0x01, 0x00, 0x00, 0x00, 0xc2, 0xff, 0xff, 0xff, 0x00, 0x00, 0x00, 0x01,
  0x10, 0x00, 0x00, 0x00, 0x10, 0x00, 0x00, 0x00, 0x03, 0x00, 0x00, 0x00,
  0x1c, 0x00, 0x00, 0x00, 0x48, 0xff, 0xff, 0xff, 0x0f, 0x00, 0x00, 0x00,
  0x61, 0x72, 0x69, 0x74, 0x68, 0x2e, 0x63, 0x6f, 0x6e, 0x73, 0x74, 0x61,
  0x6e, 0x74, 0x31, 0x00, 0x02, 0x00, 0x00, 0x00, 0x10, 0x00, 0x00, 0x00,
  0x10, 0x00, 0x00, 0x00, 0x00, 0x00, 0x16, 0x00, 0x18, 0x00, 0x14, 0x00,
  0x00, 0x00, 0x10, 0x00, 0x0c, 0x00, 0x08, 0x00, 0x00, 0x00, 0x00, 0x00,
  0x00, 0x00, 0x07, 0x00, 0x16, 0x00, 0x00, 0x00, 0x00, 0x00, 0x00, 0x01,
  0x10, 0x00, 0x00, 0x00, 0x10, 0x00, 0x00, 0x00, 0x02, 0x00, 0x00, 0x00,
  0x1c, 0x00, 0x00, 0x00, 0x9c, 0xff, 0xff, 0xff, 0x0e, 0x00, 0x00, 0x00,
  0x61, 0x72, 0x69, 0x74, 0x68, 0x2e, 0x63, 0x6f, 0x6e, 0x73, 0x74, 0x61,
  0x6e, 0x74, 0x00, 0x00, 0x02, 0x00, 0x00, 0x00, 0x01, 0x00, 0x00, 0x00,
  0x10, 0x00, 0x00, 0x00, 0x00, 0x00, 0x16, 0x00, 0x1c, 0x00, 0x18, 0x00,
  0x00, 0x00, 0x14, 0x00, 0x10, 0x00, 0x0c, 0x00, 0x00, 0x00, 0x00, 0x00,
  0x08, 0x00, 0x07, 0x00, 0x16, 0x00, 0x00, 0x00, 0x00, 0x00, 0x00, 0x01,
  0x14, 0x00, 0x00, 0x00, 0x20, 0x00, 0x00, 0x00, 0x20, 0x00, 0x00, 0x00,
  0x01, 0x00, 0x00, 0x00, 0x40, 0x00, 0x00, 0x00, 0x02, 0x00, 0x00, 0x00,
  0xff, 0xff, 0xff, 0xff, 0x09, 0x00, 0x00, 0x00, 0x04, 0x00, 0x04, 0x00,
  0x04, 0x00, 0x00, 0x00, 0x21, 0x00, 0x00, 0x00, 0x73, 0x65, 0x72, 0x76,
  0x69, 0x6e, 0x67, 0x5f, 0x64, 0x65, 0x66, 0x61, 0x75, 0x6c, 0x74, 0x5f,
  0x6b, 0x65, 0x72, 0x61, 0x73, 0x5f, 0x74, 0x65, 0x6e, 0x73, 0x6f, 0x72,
  0x5f, 0x33, 0x30, 0x3a, 0x30, 0x00, 0x00, 0x00, 0x02, 0x00, 0x00, 0x00,
  0x01, 0x00, 0x00, 0x00, 0x09, 0x00, 0x00, 0x00, 0x02, 0x00, 0x00, 0x00,
  0x20, 0x00, 0x00, 0x00, 0x04, 0x00, 0x00, 0x00, 0xf4, 0xff, 0xff, 0xff,
  0x0e, 0x00, 0x00, 0x00, 0x00, 0x00, 0x00, 0x0e, 0x0c, 0x00, 0x0c, 0x00,
  0x0b, 0x00, 0x00, 0x00, 0x00, 0x00, 0x04, 0x00, 0x0c, 0x00, 0x00, 0x00,
  0x09, 0x00, 0x00, 0x00, 0x00, 0x00, 0x00, 0x09
};

#endif //POSTURA_MODEL_H